[PAD]
[UNK]
[CLS]
[SEP]
[MASK]
!
"
#
$
%
&
'
(
)
*
+
,
-
.
/
0
1
2
3
4
5
6
7
8
9
:
;
<
=
>
?
@
A
B
C
D
E
F
G
H
I
J
K
L
M
N
O
P
Q
R
S
T
U
V
W
X
Y
Z
[
\
]
^
_
`
a
b
c
d
e
f
g
h
i
j
k
l
m
n
o
p
q
r
s
t
u
v
w
x
y
z
{
|
}
~
¡
£
¦
§
¨
©
ª
«
¬
®
°
±
²
³
´
µ
·
¹
º
»
¼
½
¾
¿
À
Á
Â
Ä
Å
Æ
Ç
È
É
Ë
Í
Î
Ñ
Ò
Ó
Ô
Ö
×
Ø
Ú
Ü
Ý
Þ
ß
à
á
â
ã
ä
å
æ
ç
è
é
ê
ë
ì
í
î
ï
ð
ñ
ò
ó
ô
õ
ö
÷
ø
ù
ú
û
ü
ý
þ
ÿ
Ā
ā
ă
Ą
ą
Ć
ć
Č
č
Ď
ď
Đ
đ
ē
ĕ
ė
ę
Ě
ě
ğ
ġ
ħ
ĩ
ī
İ
ı
ĳ
ķ
Ĺ
ĺ
ļ
Ľ
ľ
Ł
ł
Ń
ń
ņ
Ň
ň
ŋ
ō
ŏ
Ő
ő
œ
ŕ
Ř
ř
Ś
ś
Ş
ş
Š
š
Ţ
ţ
Ť
ť
ũ
ū
ŭ
Ů
ů
ű
ų
Ź
ź
Ż
ż
Ž
ž
Ə
ƒ
ơ
ư
ǎ
ǐ
ǔ
ǫ
Ș
ș
Ț
ț
ɐ
ɑ
ɔ
ə
ɛ
ɡ
ɪ
ɾ
ʁ
ʃ
ʊ
ʒ
ʹ
ʻ
ʼ
ʾ
ʿ
ˇ
ˈ
ˌ
ː
˚
̀
́
̃
̆
̈
̉
̊
̌
̣
̯
̶
͡
Α
Β
Γ
Δ
Ε
Η
Θ
Ι
Κ
Λ
Μ
Ν
Ο
Π
Ρ
Σ
Τ
Υ
Φ
Χ
Ω
ά
έ
ή
ί
α
β
γ
δ
ε
ζ
η
θ
ι
κ
λ
μ
ν
ξ
ο
π
ρ
ς
σ
τ
υ
φ
χ
ψ
ω
ό
ύ
ώ
ϡ
Ђ
Є
І
Ј
Џ
А
Б
В
Г
Д
Е
Ж
З
И
Й
К
Л
М
Н
О
П
Р
С
Т
У
Ф
Х
Ц
Ч
Ш
Ы
Э
Ю
Я
а
б
в
г
д
е
ж
з
и
й
к
л
м
н
о
п
р
с
т
у
ф
х
ц
ч
ш
щ
ъ
ы
ь
э
ю
я
ё
ђ
є
і
ї
ј
љ
њ
ћ
ў
џ
ѣ
қ
ҧ
ҭ
ү
ә
ө
Ա
ա
բ
ե
ի
լ
կ
մ
յ
ն
ո
ս
վ
տ
ր
ւ
ְ
ֲ
ִ
ֵ
ֶ
ַ
ָ
ֹ
ּ
ׁ
ׂ
א
ב
ג
ד
ה
ו
ז
ח
ט
י
ך
כ
ל
ם
מ
ן
נ
ס
ע
ף
פ
ץ
צ
ק
ר
ש
ת
،
؟
ء
آ
أ
ؤ
إ
ئ
ا
ب
ة
ت
ث
ج
ح
خ
د
ذ
ر
ز
س
ش
ص
ض
ط
ظ
ع
غ
ـ
ف
ق
ك
ل
م
ن
ه
و
ى
ي
ً
َ
ُ
ِ
ّ
١
پ
چ
ژ
ک
گ
ہ
ی
ं
अ
आ
इ
उ
ए
क
ख
ग
च
ज
ट
ड
ण
त
थ
द
ध
न
प
ब
भ
म
य
र
ल
व
श
ष
स
ह
़
ा
ि
ी
ु
ू
े
ै
ो
्
।
া
ி
்
ก
ง
ท
น
พ
ม
ย
ร
ล
ว
ห
อ
ั
า
ิ
ี
เ
่
้
་
ག
ང
ད
ན
བ
མ
ར
ས
ུ
ོ
ა
ბ
გ
დ
ე
ვ
ზ
თ
ი
კ
ლ
მ
ნ
ო
რ
ს
ტ
უ
ქ
შ
ძ
ხ
ᅠ
ḥ
ṣ
ṭ
ạ
Ả
ả
Ấ
ấ
ầ
ẩ
ẫ
ậ
ắ
ằ
ẳ
ặ
ẻ
ẽ
ế
ề
ể
ễ
ệ
ỉ
ị
ọ
ỏ
ố
ồ
ổ
ỗ
ộ
ớ
ờ
ở
ỡ
ợ
ụ
ủ
ứ
ừ
ử
ữ
ự
ỳ
ỷ
ỹ
ἀ
Ἀ
ῖ
‐
‑
‒
–
—
‘
’
‚
“
”
„
‟
†
•
…
‰
′
″
›
‼
⁄
€
⃣
№
™
↑
→
↔
⇒
∈
−
∙
∞
≈
≡
≤
≥
─
█
■
▪
▫
►
●
◼
☀
★
☐
☝
☺
♀
♂
♥
♦
♭
⚊
⚠
⚡
⚽
✅
✈
✊
✌
✒
✔
✖
✨
❄
❗
❣
❤
➖
➡
➤
⠀
⬇
⭐
、
。
あ
い
う
お
か
が
き
く
け
こ
さ
し
す
た
っ
て
で
と
な
に
の
は
ま
み
も
ら
り
る
れ
を
ん
ア
ィ
イ
ウ
オ
カ
ガ
キ
ク
グ
コ
シ
ジ
ス
タ
チ
ッ
ツ
テ
ト
ド
ナ
ニ
ノ
バ
パ
フ
ブ
プ
マ
ミ
ム
ャ
ラ
リ
ル
レ
ロ
ン
・
ー
ㅤ
一
三
上
中
二
京
人
代
会
佐
公
北
南
原
和
国
國
地
城
大
天
太
子
学
安
家
寺
小
山
島
川
州
市
平
式
戦
手
文
新
日
明
木
本
東
株
機
武
水
江
治
海
王
生
田
町
的
社
神
空
立
美
航
艦
花
藤
行
西
道
郎
部
野
金
長
隊
高
이
한
ﬁ
️
！
，
￼
𝕖
🇦
🇧
🇨
🇩
🇪
🇫
🇬
🇭
🇮
🇰
🇱
🇲
🇳
🇵
🇷
🇸
🇹
🇺
🇻
🇽
🇾
🇿
🌈
🌊
🌟
🌴
🌸
🌹
🎉
🎥
🏆
🏴
🏻
🏼
🏽
👇
👉
👊
👌
👍
👏
👑
💃
💋
💔
💕
💙
💚
💥
💪
💯
📷
📸
🔥
🔴
🔹
🖤
😀
😁
😂
😅
😆
😉
😊
😍
😎
😘
😜
😭
🙄
🙈
🙌
🙏
🚨
🤔
🤗
🤣
🤦
🤩
🤪
🤷
##a
##f
##i
##n
##t
##d
##e
##b
##c
##s
##p
##r
##o
##ž
##é
##m
##z
##v
##ř
##l
##u
##j
##ě
##š
##k
##ý
##č
##í
##h
##à
##ó
##y
##g
##á
##ł
##w
##E
##C
##H
##Ů
##x
##ú
##V
##I
##N
##D
##L
##Í
##R
##1
##6
##ň
##2
##3
##0
##9
##5
##X
##T
##M
##K
##B
##о
##в
##с
##т
##е
##й
##7
##ť
##ą
##ć
##U
##ů
##ø
##O
##W
##ד
##י
##נ
##ה
##P
##F
##ś
##ö
##G
##S
##4
##а
##г
##л
##8
##è
##×
##к
##з
##н
##A
##р
##у
##д
##и
##ч
##Ý
##ร
##ท
##ี
##ม
##ľ
##ע
##ו
##צ
##מ
##ю
##я
##´
##¨
##ي
##ن
##ش
##ر
##ż
##ô
##°
##ü
##ح
##ض
##و
##φ
##ź
##́
##ص
##ل
##ا
##q
##Z
##س
##ت
##ق
##ל
##א
##Y
##ë
##J
##ä
##ु
##म
##ा
##ب
##ń
##̌
##神
##社
##м
##х
##ę
##ď
##њ
##Q
##ğ
##ı
##É
##🌹
##б
##Č
##ج
##م
##本
##人
##が
##し
##ま
##く
##る
##Ú
##є
##ь
##ط
##ة
##ș
##ك
##か
##り
##Á
##щ
##ы
##п
##な
##ら
##ñ
##М
##О
##Г
##島
##美
##は
##إ
##Ť
##Š
##ִ
##ׁ
##ז
##ָ
##ּ
##פ
##ֹ
##ן
##ב
##ט
##ק
##ظ
##川
##Ě
##Ž
##ç
##ש
##ר
##ә
##ş
##خ
##ه
##د
##Ř
##æ
##ề
##ع
##ð
##🏴
##ē
##ɔ
##ˈ
##̊
##−
##😘
##💚
##ī
##ز
##🇸
##🇬
##🇧
##đ
##ш
##ё
##ê
##ε
##λ
##υ
##κ
##ι
##δ
##ν
##ћ
##ʻ
##û
##ک
##ی
##ß
##ث
##ъ
##أ
##ئ
##地
##ѣ
##ő
##љ
##α
##ή
##ς
##ف
##ַ
##ג
##ֵ
##ת
##â
##і
##±
##ם
##כ
##ј
##和
##ђ
##õ
##τ
##ί
##آ
##️
##ύ
##π
##ο
##ц
##ŭ
##ّ
##̣
##ː
##ˌ
##ə
##ì
##ρ
##ῖ
##å
##Η
##Μ
##Α
##Ρ
##Ó
##γ
##機
##™
##ी
##ड
##ि
##य
##ً
##🏻
##♀
##🤪
##ա
##ր
##ս
##յ
##ն
##ˇ
##İ
##Ş
##ò
##イ
##さ
##ん
##ф
##ى
##手
##に
##Ä
##ס
##σ
##χ
##η
##ể
##̉
##で
##❤
##ă
##🙏
##ã
##ũ
##ء
##گ
##ĺ
##水
##ナ
##ル
##フ
##ン
##タ
##ジ
##ー
##ά
##ā
##ō
##ư
##ợ
##э
##ї
##ж
##Ü
##ŕ
##ְ
##🌈
##ɡ
##ʊ
##Ö
##ĕ
##チ
##ù
##⃣
##🇮
##🇳
##º
##─
##ŋ
##ɛ
##Р
##С
##Л
##А
##В
##ņ
##中
##ξ
##К
##ֶ
##ス
##ト
##市
##Ç
##©
##ª
##थ
##त
##्
##र
##ū
##オ
##ッ
##キ
##ạ
##ỳ
##の
##山
##上
##れ
##す
##🇨
##🇦
##்
##ך
##ễ
##ㅤ
##と
##β
##艦
##ω
##ό
##ŏ
##غ
##式
##会
##ो
##प
##ल
##🎉
##ű
##ʼ
##̀
##👌
##Б
##🇪
##ף
##ؤ
##ï
##ذ
##💙
##Д
##Ф
##μ
##व
##👊
##ė
##ח
##ィ
##ण
##Н
##Е
##ў
##Λ
##Κ
##ẻ
##³
##ĩ
##И
##Т
##Ň
##พ
##ล
##町
##🔥
##😂
##қ
##👏
##Ц
##ラ
##リ
##🇺
##🇫
##🇷
##î
##城
##क
##長
##お
##ク
##い
##ե
##լ
##ั
##ง
##ิ
##เ
##ว
##ย
##ध
##ệ
##🇹
##ố
##シ
##ャ
##ự
##า
##ÿ
##͡
##ʃ
##み
##子
##ồ
##Σ
##👍
##カ
##ứ
##文
##大
##ი
##რ
##ს
##¬
##տ
##ʹ
##̃
##̈
##Ж
##Ø
##έ
##Χ
##Υ
##Ι
##Є
##🙌
##ტ
##უ
##❄
##ɑ
##ɾ
##→
##ख
##े
##न
##ა
##ლ
##≡
##П
##ウ
##Ы
##®
##²
##ُ
##َ
##ग
##☀
##😁
##☝
##野
##У
##🌟
##ớ
##🇱
##☺
##♂
##स
##ի
##ấ
##მ
##ვ
##ე
##ბ
##ǎ
##þ
##پ
##ہ
##श
##च
##💪
##ɪ
##θ
##🏽
##田
##ロ
##パ
##ツ
##ド
##💕
##ų
##國
##ţ
##プ
##ץ
##ო
##ნ
##一
##ـ
##ļ
##🇲
##ỏ
##Å
##द
##ո
##🇩
##ʿ
##✨
##き
##た
##Ш
##✌
##ổ
##კ
##日
##っ
##€
##ķ
##Ń
##ζ
##😉
##も
##て
##け
##的
##̆
##თ
##💋
##レ
##新
##国
##王
##ώ
##ṭ
##დ
##้
##⚽
##海
##🌸
##կ
##😊
##ֲ
##ế
##😀
##グ
##œ
##া
##⭐
##≈
##ậ
##ừ
##ོ
##ན
##ơ
##ữ
##Я
##Ć
##ẩ
##Ο
##Γ
##三
##😎
##़
##ं
##ṣ
##Ś
##マ
##🇿
##🇰
##ị
##ț
##寺
##ミ
##À
##🇵
##こ
##შ
##½
##ḥ
##ụ
##🏼
##ɐ
##ხ
##Ñ
##👇
##ʒ
##ắ
##մ
##ガ
##♭
##վ
##ψ
##木
##天
##原
##州
##部
##ﬁ
##ष
##を
##小
##ĳ
##Ď
##Э
##ө
##ム
##生
##ǔ
##Ω
##З
##⚡
##🖤
##ả
##北
##ძ
##̯
##ọ
##家
##Δ
##ブ
##ज
##コ
##テ
##ू
##🎥
##🤦
##😅
##😍
##ħ
##ह
##Â
##ِ
##ʾ
##空
##隊
##ア
##ニ
##🤣
##道
##★
##¹
##ქ
##🇾
##🇻
##➖
##😜
##✊
##Ч
##🙈
##ब
##🌊
##航
##公
##ầ
##ǫ
##✈
##چ
##བ
##ུ
##🙄
##Ë
##🤔
##გ
##ट
##🌴
##安
##➡
##ւ
##📷
##ׂ
##ẽ
##˚
##▪
##↔
##🇭
##高
##Ţ
##🔴
##❣
##学
##ờ
##ზ
##💥
##立
##西
##Й
##Х
##Ν
##⬇
##ỡ
##џ
##ག
##👑
##二
##÷
##❗
##Ľ
##Ј
##भ
##Ż
##이
##♥
##𝕖
##🤗
##Ł
##✔
##江
##อ
##ห
##น
##∙
##ҧ
##ʁ
##●
##इ
##่
##ộ
##ノ
##한
##⚠
##̶
##花
##ỗ
##ก
##バ
##ủ
##郎
##株
##🤷
##😭
##ǐ
##£
##ै
##ҭ
##¦
##太
##南
##ү
##🤩
##💃
##ད
##բ
##代
##Π
##🏆
##行
##ġ
##ி
##武
##♦
##Ą
##ẫ
##明
##🇽
##🚨
##Ĺ
##東
##ử
##⠀
##治
##∈
##あ
##💔
##ང
##Ε
##Τ
##戦
##¾
##💯
##І
##ژ
##佐
##🔹
##ར
##👉
##藤
##█
##金
##མ
##ས
##平
##ặ
##う
##ए
##Β
##Ю
##µ
##Ź
##١
##≤
##उ
##आ
##✅
##ở
##¼
##￼
##È
##▫
##ỷ
##∞
##Ա
##😆
##⁄
##京
##📸
##Đ
##ỹ
##Φ
##ỉ
##Θ
##ἀ
##⚊
##►
##Ò
##Ô
##≥
##✒
##ằ
##Æ
##Ā
##ᅠ
##ƒ
##Ő
##ẳ
##⇒
##✖
##Þ
##↑
##Î
##Ấ
##Ș
##st
##ov
##en
##ch
##ou
##ní
##ra
##la
##ro
po
##le
23
##te
##li
na
se
##em
237
##ed
##in
##ho
##ak
##sk
##ce
##an
ne
do
##al
##at
##on
je
př
##or
22
pro
225
##it
##er
##ně
st
##ci
##od
za
##il
##ar
##53
to
##ku
##ni
##el
28
##rá
283
##ad
##no
##ti
by
vy
##et
##lo
##de
##ka
13
##ky
##ter
ro
##to
##jí
##je
34
345
##po
##ení
##ých
##na
233
##es
##ck
že
38
382
##ší
##av
ob
##mi
26
##né
##ru
ch
##id
od
##ez
pod
##lu
##ek
##va
##ist
##ob
269
##ří
pr
js
kter
##mu
##dy
##cí
tak
253
##ře
##vě
##ent
##ová
##lá
##ské
##sti
353
##ko
##me
ve
##tě
zá
##as
ná
##ná
##vo
##by
ko
jak
##mě
##is
##ál
##ové
si
##am
##rav
##ud
sv
##tu
ale
vý
mo
##ím
in
ně
##ji
mě
##ze
##ali
##nu
36
jed
##vá
roz
##us
před
367
##že
při
##uje
##led
##ta
##ým
##dě
##ovat
ho
##ři
##ech
##tel
##át
##bo
pří
re
##ly
nej
##up
##ví
##ri
##ny
##om
##nou
kon
##lad
##ních
20
Po
##tí
sou
##ká
##ili
##est
##ého
##ova
spo
##kon
##hod
##lí
##ne
##vní
vš
sp
##ád
te
##im
##nost
jako
ni
##ude
##ick
##pad
##ém
co
##os
##ty
##un
##oval
##ný
##čí
##da
##ním
##ran
##stav
vě
##prav
poli
##lov
##du
mí
##ur
##ba
ka
le
##ol
##ma
##ště
jsou
kdy
##stup
kte
ma
de
nem
##ční
19
##rov
let
##lou
Na
##ej
##mí
##ec
##ují
##vy
min
##ží
##vr
vz
##ie
##pu
má
které
nebo
##oz
##ků
##ry
##ve
bude
jsem
ji
byl
lid
##řed
který
mu
pos
##pe
##iz
##he
##kou
##nosti
##sta
##lav
jsme
##re
##bu
jen
##sp
už
##ste
##op
##iv
##ot
jeho
##bě
##ský
dal
##kov
##ut
##dá
##ila
16
vel
aby
tr
##jší
bez
pra
##ost
##ování
##hu
##ního
##sob
en
##raz
Je
##klad
##vět
##ir
##mo
také
bud
Pro
ví
##ic
##do
podle
##lem
##sto
##nd
##řej
pot
##my
cel
##oru
zp
prá
poz
##ved
ze
##áz
##ovan
##vod
nap
##ena
##ského
##ina
##00
##ově
201
##ných
##ená
##si
roce
dě
##sa
hod
##ální
##ilo
ak
##ul
##ev
##lat
politi
bý
##ing
mus
##ič
##žit
##bí
##ská
##še
op
Pod
proto
##mp
##ené
##hy
##alo
další
##jem
St
##ám
moh
Če
zem
##kem
ned
##ům
160
pou
##leč
##rad
ří
zd
##rop
##rát
byla
nep
##ských
##iny
která
jin
##kt
roku
##ab
##ala
##for
tě
až
stra
nov
the
##ruh
##pr
mez
če
##zna
mili
##len
bylo
mi
##koli
##sku
##cích
##kra
##se
To
##itu
##val
li
vo
##ha
##ství
25
##men
##gra
nez
##cké
##las
##ými
##ace
##last
##nik
kor
##dí
tom
##itel
pa
vys
ty
pů
##má
##oup
##eg
##tek
##ment
##ůže
##bli
ex
##jich
než
##rů
##ich
sk
pak
tu
##tá
##zi
kde
##vrop
##and
##ného
prost
##ět
dů
##nit
##ct
di
dob
jedno
ov
##kud
##rod
uved
bo
té
sy
ani
toho
chce
společ
Ne
nás
budou
stá
být
##sko
ten
Pra
##ion
##emi
druh
vlá
jejich
##chod
něj
dost
přes
##ovi
##nes
la
sku
ru
##jte
##iná
##ale
řek
mezi
pře
##az
proti
když
##čas
##art
200
##lé
však
rozhod
##ver
##let
##hled
minist
##ana
##há
ed
stát
os
první
něk
ved
of
au
##mer
čt
##vat
##mé
není
##ys
##sed
##eme
nad
korun
##DE
##tem
so
Podle
##cent
##ska
či
mož
rod
##tech
Za
250
##ber
kra
##vot
##rit
Ch
stav
des
##tej
lo
tím
své
##ident
##ast
##hra
případ
##rg
##ovala
všech
##aj
ži
##nější
ještě
##ag
##roz
##luv
sto
sam
zač
an
##um
mno
míst
zv
##bor
prav
##liv
##nice
čá
##dr
##ady
##če
##ily
##stí
##pl
dí
##ig
může
##lan
##ice
no
prez
vlast
##nout
komu
##zení
##kaz
##čně
##co
##šení
##eny
##ců
##di
kteří
##inu
##stat
Jak
##log
tomu
pov
##án
##edy
##aci
##ub
##ite
##ovou
##tiv
##ření
##cie
##skou
##ké
##jen
prob
prac
hra
##ych
##hem
##ového
##zd
ZDE
##ových
Do
tý
##ový
infor
##jící
##ik
##ině
Evrop
##ček
dv
slu
##ším
dva
##sky
##ard
##oto
fir
pat
##oh
Ale
neb
prů
vá
sm
##ár
zat
tam
vět
chcete
##istru
##spě
##por
prov
ta
sch
it
##sí
tedy
##žd
lé
tele
její
nech
##egistru
##egistrujte
##rat
##kr
tis
spolu
##ovali
al
vol
Jste
více
řekl
##ným
Od
##ické
##čit
Ji
sta
##řeba
svě
Zar
##čet
##ia
nich
##jev
vod
##aly
##čních
osob
stej
18
##oc
zna
sil
##žen
##říklad
Zaregistrujte
čer
cest
ar
žád
procent
již
velmi
##rom
několi
par
##lep
mod
pop
##sou
rad
fin
posled
ke
##ži
prezident
Ně
##áv
ře
##cház
##hrá
protože
##lit
##ue
kv
##tom
ti
bě
##ující
##rob
Ve
ní
##sled
##chy
Nej
Mar
##žení
##nil
lidí
Pr
##ory
jí
ny
ško
as
35
##publi
fun
##chu
##man
podob
Kdy
milion
musí
zastup
dem
zde
##ii
##či
In
měl
##ách
dlou
vše
10
##ap
el
zn
##řad
##lém
mají
##jed
for
##ané
##ském
neby
15
byly
Vy
##vají
zí
32
##lik
tři
##stoup
uvedl
ot
pomo
##hlá
toti
##cen
pl
##ici
mluv
##nutí
##ští
##hl
##íc
Ma
bych
den
##tr
##den
Tak
chy
kont
republi
##ráv
##měr
Mo
US
dom
asi
##řel
kam
org
##ůli
syst
##roj
##měst
informa
An
##eno
fil
##čení
letech
situ
##děl
například
##ros
##zv
##hat
sob
představ
ur
stud
finan
cí
##ence
##les
##ok
##nění
čas
##ge
nic
vů
##kla
nes
soci
12
##zor
##zem
##pově
cen
hlav
##cký
každ
stan
##řet
##ková
##nat
pouze
##ává
tvr
skup
Pet
hla
veřej
čty
zákon
##ležit
on
##káz
pla
##rost
##jde
##veřej
##ari
##álně
##žel
##nám
##nika
268
sí
Jan
##ěl
seb
##mys
met
##rac
##erst
vyš
inter
##ném
##ši
změ
Pokud
hrá
Ob
##nici
##vi
tra
By
##nání
##vé
##pa
mít
třeba
red
##dal
úč
Jed
Zá
##ovní
##ůsob
ku
##řád
##eb
sna
proje
soud
jim
pad
##zy
měst
ln
##zí
##ato
Ru
problém
##ity
##ant
##rt
##cky
Te
kterou
ag
rov
dop
##cha
zahra
vyu
##ností
Ka
rych
##loven
##ís
##měř
##vali
##čka
nějak
me
vid
nik
reg
záp
##zen
##imo
zab
dokon
cz
##odu
ČS
##čil
součas
##enci
dos
mal
##ort
ek
##aniz
nev
zak
střed
kvůli
##ér
##ání
##vatel
and
což
Fran
328
11
da
17
##peč
##teč
##mat
##znam
amer
##lán
ky
##iš
nabí
ele
jeden
člen
totiž
man
##sad
##mín
rů
##ník
Ko
tech
progra
velk
vyp
##stra
dvou
kli
##hr
vyb
##ktu
rok
##losti
ote
ce
##oni
##řeb
Co
foto
několik
##ckého
zap
199
##cem
82
star
prostřed
dnes
Ná
##inou
vi
##ckých
dvě
##fer
mohou
hlas
Zem
vr
##ále
země
ode
##ón
Ten
uz
vyt
tisíc
kraj
##jist
sn
##jeme
redak
sa
##řit
červ
svět
obchod
##té
konce
postav
nám
at
##era
##su
uni
sed
dn
##sil
svými
této
nepo
##ron
době
##tele
mé
##fi
oprav
lidé
14
Kar
##šem
##hle
##ner
tento
jedn
##ovu
##kce
##aleri
##chází
zápas
con
měsí
##omi
získ
pan
##vis
##nan
##řejmě
řad
Když
kole
##rán
##stru
část
oby
##kové
##čan
##SD
##šť
úprav
čtvr
list
my
způsob
strany
chtě
och
těch
nevy
jste
Bo
##fon
trest
postup
##oda
##ůj
jednot
##istor
oko
va
Re
říká
někter
##sali
##ovo
##inist
zatím
##za
##ený
zb
##okra
politik
pokud
zdra
et
es
Spo
led
České
spe
klu
##lil
##ždy
mimo
ekon
nemoc
čtená
##tor
přest
násled
##ěk
cent
měla
dis
her
jej
Al
byli
##leb
organiz
Při
úto
doprav
větš
##šel
voz
místo
##ským
tur
##sah
##veřejně
dne
##sla
ad
rek
##anou
##res
##son
kolem
##cká
města
30
##nict
mys
##žil
zahrani
kdo
kro
##níků
##mou
##zu
24
##hov
##DS
hodno
právě
zda
Sou
bod
neu
šp
prv
ban
##cela
předsed
##ond
Li
Par
plat
##iteli
pen
připrav
##věd
up
Bab
provoz
mlad
##her
jde
##obil
krá
nyní
Lu
##hlas
společnosti
aut
čtenář
##rodní
hlavní
Br
##hru
gen
život
##ář
komunik
##lád
##jet
histor
##letí
premi
ver
##št
svou
nové
dota
##víc
nav
##voj
##ději
##sal
##dob
elekt
komp
hor
pu
USA
minu
případě
##eň
##ít
všechny
##lez
##io
21
##uj
zdravot
##kách
dobr
zku
komunikovat
něco
přek
The
##hla
##opak
div
Vý
##hrad
sled
ODS
EU
##vu
Před
demokra
mluvčí
##šlo
boj
##lasti
##atel
##lin
##pí
##řil
##čky
om
kr
##átor
čin
tro
##ura
prý
##bec
##evším
klad
Vá
návr
br
dalších
ekonomi
zastupiteli
##ckou
##galeri
##átku
zů
27
Psali
dr
stále
Zveřejně
měli
polici
americk
redakčních
objev
sez
Zveřejněte
##ovalo
##ance
třet
dál
##teg
řed
##nic
##ned
##šit
odbor
##lení
základ
ČSSD
##ely
##vyš
##ati
spolup
##vání
##ému
připo
##kl
Kon
oz
pá
pož
Ja
##ane
##aliz
jas
que
podp
kap
##ůž
sr
Pa
vyj
policie
##nut
res
##šen
kou
##pozi
##zku
##čá
skon
##eti
auto
##net
du
nejen
per
ČR
občan
vál
otev
##obraz
ter
zaměst
ministerst
##ine
##ga
##ord
moc
práce
##mb
##plo
su
náv
ci
nedo
##níci
hled
tří
##tion
##žně
především
##ích
##ají
teh
##éf
udě
evrop
##andid
##roveň
během
vlády
přím
##ované
000
zt
##hruba
svého
##per
Sy
##gy
##ata
speci
původ
chod
##sté
zej
##kraj
##esti
ostat
pě
##kání
Pav
##ton
vznik
Roz
Jen
čtyři
rád
##mov
##ld
med
ab
ost
##tivní
##ten
muž
##ména
##těz
##rist
##liš
##sem
##lož
dokonce
##ovy
nen
krit
Le
is
telefon
##gu
pros
růz
býval
Praze
##ěli
uli
##řes
##ceti
##rem
sice
ozna
##ultu
Sp
živo
jiné
fak
##ňuje
##větší
##čen
vysvět
Jiří
del
obdob
pokra
##20
##tů
teď
těž
milionů
bezpeč
služ
##pera
poku
Rus
##ák
##áze
##pov
lze
zhruba
jist
Mart
##lní
Rad
Mich
kontro
##ef
svých
##nila
tohoto
Něme
působ
##van
##krát
##dek
vlastní
pět
úspě
ser
Ro
podí
poč
důvod
##ovaly
##padu
##poč
tv
##viz
##so
Dal
něm
tady
potvr
Ta
bar
člov
kri
navíc
##cet
##ín
vůbec
##lon
poslední
##end
kni
##vid
uzav
##álních
Amer
územ
ap
prof
##icky
části
##graf
##isk
er
##kci
pova
dodal
##řilo
set
##spo
dobře
##jít
možné
nebude
produ
##hou
##nými
přit
oblasti
pode
lí
##řen
Mi
veli
vždy
##ovém
slov
soutě
hodin
prohlá
##lament
##eta
vzta
##sy
vide
##asto
Minist
Petr
umě
úřad
pořád
druhé
##ován
systém
##lím
##eli
dra
pom
stup
kandid
Poli
hr
##ější
##ovatel
mohl
##lost
prode
Sch
oh
schop
##tní
voj
##bal
##koliv
##dou
polov
##jm
##py
nakon
##lal
nemá
And
Tom
##omet
##ický
domá
##íše
nakonec
men
obyvatel
otáz
Zeman
smlou
tomto
der
357
##osti
hroz
Se
vedení
firmy
vl
Babiš
Ar
Tru
agent
##byt
com
tým
##cím
určit
##řez
##ted
ry
##ince
obě
##rak
Vel
##sle
##pozor
svůj
nejlep
##ca
##nov
pravid
##cit
později
##hlí
sen
šéf
##áh
##olog
Proto
##tečně
##stě
##oš
rám
##eníze
výro
úda
198
##stli
kultu
stejně
autom
##sty
Já
dopl
zůst
zcela
roky
##stu
sebe
##cení
kar
aktiv
voleb
##gen
podpor
##uro
Cel
spoj
století
esk
použí
patří
##zn
##mít
Pří
díky
##min
##sch
dří
##vý
ut
vyso
děti
##hor
##ava
já
##nem
minul
##cou
##inci
nu
vytvo
hosp
##ších
závod
Ty
vás
týd
téměř
bu
##bou
samoz
Jeho
pokrač
zvý
Ho
##ral
naše
##ývá
##čer
dá
##ráž
nabíd
často
##ff
opravdu
##ij
letos
Mez
##ložit
##šek
##klá
##ary
odh
Ba
místě
fot
##čního
##řízení
##ichni
ves
zástup
##kro
zase
víc
dosta
šest
region
pohy
##ony
##pis
that
Au
republiky
největší
nut
informace
plá
nejsou
##ler
spole
rámci
hodně
##ft
##skyt
internet
výraz
potřeb
květ
počí
situace
poslan
##lika
uvedla
výkon
podporu
půl
##teri
poch
##drž
žen
##pan
program
##mysl
50
##čku
##jím
##ese
##prve
##ovým
něme
pam
přitom
situaci
##rní
snad
peníze
vyz
vra
ech
takže
##elu
has
sně
##ces
dov
So
výsled
##én
##šet
##tra
Ber
##NO
ps
zná
Sam
ředitel
film
chví
poté
Bar
upozor
Lid
Brit
##álu
##slu
vých
sc
##ody
##četně
pe
be
##ických
fung
Sv
##štění
Ví
##kup
dobu
lep
ba
důležit
komi
moder
státní
jednání
##hledem
ministr
ovšem
zemi
##pod
##ore
zprá
podmín
světa
české
doby
zejména
přij
part
opat
Foto
úpl
deset
prod
využí
##dil
nikdy
por
Tur
##ivní
pon
souvis
každý
odpově
##not
větší
Mě
##stv
Uni
##kam
omez
Nov
tuto
lety
miliar
##méně
Nav
včetně
jedin
vláda
opět
prezidenta
para
znovu
vypad
praž
##lech
Sta
vyd
státu
##luje
##ovky
##lova
mil
celé
##ilomet
jedna
území
mat
Trump
považ
obra
návště
hlavně
##koho
nost
umí
##voji
jednoho
hy
listo
vlád
poda
těchto
jednotliv
##kům
osm
##met
##lání
##něž
##kal
zastupitel
arch
##kami
velké
La
jestli
##vaz
##aná
Pl
nab
zra
léka
Sa
společnost
##ke
umo
Kč
stal
dat
sty
##gli
##teli
techni
mnoho
tehdy
začí
##cti
vyh
vítěz
zalo
##onu
televiz
sport
podpo
Op
tyto
##íš
pohled
soudu
svým
dub
tla
ANO
několika
##ung
trad
##stá
vnit
vám
Má
Praha
sedm
zapo
abych
##vala
100
ly
naopak
##elo
škol
los
rak
##pust
##ela
##ES
slou
blí
##ren
##sek
##kti
svob
##kovi
loni
období
##prez
##vest
údaj
##kli
##ps
sní
autor
obje
194
řízení
Bud
##oun
Vác
lu
polo
##boru
práci
exist
##go
sociální
dodá
##fek
gó
projekt
##verz
mist
##roslav
bychom
význam
Zat
Martin
médi
##cej
##čem
ener
tvo
##čast
koup
svém
účast
##běh
##ith
ček
Nem
Pře
hned
em
Mu
##íme
##šk
zaměstnan
tit
##xu
##ených
ok
##pě
trochu
nor
září
##čila
jednou
##kyně
kilomet
il
Hod
správ
věci
vstup
##lava
##žní
zach
znam
opera
##ang
zvo
##nolog
##war
##čné
##idič
vyšet
resp
vydá
##vesti
břez
jinak
dlouho
Jos
navr
profes
##cion
přev
zas
##out
un
##enou
##ruš
are
dod
mohli
sám
stat
máme
rychle
náro
skuteč
##dala
##žší
nikdo
pár
##lý
##11
První
rá
čtvrt
přímo
akce
196
dostal
možnost
##pt
kolik
kvali
##ovací
závě
Čech
nemus
rozhodnutí
##kument
skupiny
Pe
budouc
divad
naš
mělo
Mus
##ovaný
listopadu
Ku
lev
Du
mas
Ukraj
##prvé
##ická
dy
vojen
die
##stů
##couz
výstav
město
dan
##ujeme
stojí
komuni
prim
352
##roje
##lek
pozor
##ita
neza
##vap
Ex
Hav
##ven
##skos
##ple
Prá
pomoc
40
##ation
pracovní
posledních
lidi
bran
maji
plo
##ers
Vo
##our
kan
kdyby
nimi
nebyl
zákona
Prahy
##kali
obec
proč
úplně
##rou
##jení
výrob
##nictví
##OP
parlament
zemí
##ždě
##líb
plán
dola
nemoh
chvíli
manžel
třetí
koali
##leg
špat
podstat
poskyt
Čí
sever
##bách
spoluprá
zlo
poh
konci
řešení
všichni
Dav
##hodob
součá
investi
zam
##ostí
##álního
tex
jednodu
##cko
zájem
povin
posla
odvo
disk
##éri
##ier
zároveň
cenu
slav
poji
ukáz
##vyšší
Vě
srp
De
##ouf
policej
##lů
samozřejmě
počet
Di
bezpečnost
pís
##ada
197
ochra
##říd
##pro
##ována
prostředí
Bě
##stitu
jem
kom
##kré
Ju
čís
tran
zkou
letoš
procenta
krát
##vyk
minut
sko
tém
Tomá
příliš
říj
##alu
dru
popu
miliardy
Už
##ními
##ického
znám
##čů
##ií
Vz
jmen
vyjád
hry
##rus
##nec
rez
##nému
čtyř
prostor
##prezent
##klady
možná
zákaz
##cháze
km
##smu
##enti
mobil
Něk
trhu
zjist
všechno
podni
někdo
dále
##otu
pohyb
test
##eru
podnika
server
##tít
##čin
##inále
vliv
##oucí
##važ
rn
obv
##ury
miliard
00
##ickou
##qu
Sloven
odmít
vla
celou
##bus
rozdí
okam
budeme
pěti
##níky
Ad
Kla
návrh
pi
samot
celkem
toto
smr
##zni
Kra
##rání
##ind
ním
dopad
dříve
vrch
fran
požad
##fil
dlouhodob
##obrazit
ústav
mar
Ha
##letý
##lace
rovněž
##NES
peně
dokument
Kro
##ůvod
oblast
##rně
přid
některých
##čním
dohod
##éra
uje
mohla
dce
východ
vystoup
uvá
světě
prakti
obraz
##ill
##řů
My
člověk
Jako
předseda
Pavel
Kr
Pol
voli
dlu
##hrál
09
##hi
brit
roli
##ovaných
zastav
reprezent
us
Pak
len
pok
##šla
leg
takové
projev
jich
193
trené
Česku
Mezi
obsah
New
##xi
řidič
konku
fotogaleri
Vš
prvn
začátku
staveb
Joh
Čer
th
##kat
tato
##atiz
##ůžeme
##ismu
##ostat
nebud
tvrdí
##udeb
materi
stavu
noviná
nejd
fotogalerii
Další
Af
##galerie
Fotogalerie
Evropy
##žeb
##aleko
def
##jímav
Němec
##zra
prop
##oby
jmé
60
##des
les
technolog
##álním
Byl
některé
dotaz
Zobrazit
ply
Ben
jednu
##lila
nejlepší
Let
##vající
řekla
##ěji
příští
sebou
##pra
##zeň
gra
gener
##pozici
##podob
zakáz
##og
služby
##lých
we
##řá
zel
##wa
západ
Hra
meziná
##rch
##ením
deseti
zby
Evropské
##jezd
Vlad
rozhov
Sob
moci
měly
##avy
##ška
vyšetř
##chyb
lin
právní
týden
akci
nebylo
partner
##dech
##tila
zm
prote
str
##uji
šk
##šky
##valit
##žití
dět
prvním
nemocnice
Nap
##rál
loň
ceny
##ký
vrát
var
Mat
##nal
firma
zne
mon
problémy
##děpodob
##dejší
rodič
pravidel
zách
Tento
opak
2014
jehož
premiér
TOP
žádné
##ceme
hnutí
##choz
zařízení
lepší
odpov
##izi
##ění
##stal
Mys
tzv
##rig
##dce
##port
poprvé
Rak
nebez
koment
celý
stí
##ank
kraje
##zdu
zví
mnohem
rež
zdrav
##ani
Zatím
##we
doma
programu
##roni
nos
přesvěd
zahraničí
jaké
Hor
sla
stran
model
##stva
tou
##isch
inform
přístup
271
##azy
##onstru
ciz
zbra
##skými
aktu
začal
##tes
arm
hospod
méně
##any
##eni
##hů
minim
straně
zad
Josef
##nili
und
##átní
oček
ven
Bu
metrů
##ško
nový
##áni
Tr
Rom
zahá
maj
konkré
im
strán
##hody
##átky
2016
##ktor
##lám
##zer
prodej
pořad
univerz
hudeb
dosud
vlastně
##kládá
##fika
##lymp
29
Klaus
hav
##kají
mag
rozpoč
##kám
##ovit
##lín
zásad
post
spot
tisk
Jana
##aný
Kromě
##kovou
ledna
##lomou
národ
2015
systému
skutečně
##řila
##ckým
francouz
David
##prch
republice
las
um
##itele
řád
##ac
turist
smě
##žné
byd
##tické
vysok
##hé
kterým
psych
ofici
cit
##TO
##ise
##něn
mám
proved
naší
opatření
eb
##alou
zav
došlo
##put
##šní
dětí
fotograf
obou
odpo
týmu
##ere
##uk
sprá
zvlá
##nictv
současné
minulosti
ej
Morav
školy
##entů
2011
2017
NA
##skosloven
pob
##ckém
domácí
rodin
paci
##nuje
##ův
tero
kau
zmí
##tov
snaží
##apon
pomoci
Be
Česká
##lib
publi
tvrd
Ti
spou
##aru
Mal
##xim
dítě
##vol
##rum
stranu
##ety
sdě
##anci
##lie
jedné
ide
31
výbě
##teř
tn
invest
udá
ministra
Stra
II
stře
##bur
staro
klubu
##ht
zákla
##ováním
blíz
zřejmě
alespo
##estival
##teří
kterých
základní
titul
Pi
níž
Milo
války
slo
unie
tem
##ujících
lov
est
cy
uj
projektu
vody
##amp
druhou
2018
informací
spojen
Evropě
##iden
##dět
##kových
8211
##ekt
ČT
##měrně
finanční
kup
nepři
Sobot
##tora
spíše
přis
součástí
sami
##městí
jež
##vky
úspěš
množ
2013
nena
##aných
domu
podařilo
volbách
imp
dostat
##jedná
##ado
##lel
scé
##vize
##mos
českých
Tu
vzdě
ukon
##dělí
pracov
ministerstva
života
organizace
abs
Nic
zast
typ
kone
tri
sobě
základě
80
místa
kat
##kově
##rk
prohlásil
exper
uprch
##cům
##kazuje
90
vozid
mnoha
srov
obrov
##22
porad
##voje
roční
nového
##zkum
kov
probí
zaji
##více
vzd
Ny
klub
id
vybav
##ss
bav
##skem
with
hru
##řili
##ern
přesto
vyšší
##řím
divá
vaj
Jsem
##lej
##ong
politiky
##ert
spor
##ěj
filmu
ev
##cii
No
ohro
mohlo
věc
##br
pas
kla
##ash
směr
##bit
můžete
##be
způsobem
Není
Mí
pravděpodob
rozdíl
stě
##pla
##rati
Kom
popis
Put
letad
teplo
ší
novin
kterého
Ministerst
##bra
##50
Liber
doporu
pé
velký
##saz
##tegor
názor
komise
##žila
Vi
##cy
##líč
soupe
vari
Dom
243
##povědi
vyhlá
##myslu
motor
kraji
Pan
strana
##kty
##roti
práv
jenom
spoluprac
vojá
##ránit
##seda
##ovaná
##tuje
kol
utkání
##tal
2012
milionu
ac
Václav
zprav
##čuje
##razil
##bi
##řem
komunika
platí
nemůže
##enty
nepří
##enta
##žili
rozs
bal
Da
vat
hud
získá
dubna
seri
stří
##jak
##dra
sup
2010
kvalit
##ovány
Ra
Tomáš
stala
insp
eba
městě
kapit
automobil
zajist
reak
získal
pol
odhad
znamená
sklad
proces
sprav
VI
SP
inf
mana
kab
potom
pozem
kromě
##šli
El
služeb
zobraz
úter
souhlas
oznám
2019
##sme
funkci
70
podez
lidem
##mit
Man
celá
dělat
##čili
velkou
##notit
volby
##éru
He
rozší
500
zajímav
reag
##dru
nosti
Don
Gu
kategor
##div
sněmov
nových
května
prostě
##zdy
chtěl
vzpo
jazy
peněz
ulici
##ejt
vedle
##adva
##nul
dispozici
##th
věn
ja
##berg
přin
##dom
náz
##ks
zru
Va
##hužel
##dělení
lod
jiných
televize
zen
##šti
##rych
střel
leh
síd
ohled
genera
politické
cha
pondělí
Stej
okolí
ra
ekl
##ledne
souvislosti
chtějí
Rusko
abychom
března
bodů
napsal
##edl
kari
umož
financí
##ws
##lec
různých
zu
fotbal
##skému
##of
tisí
vůči
obce
##ell
nel
daň
pal
dolarů
##hli
##ona
nichž
majet
##telem
nebyla
ha
##ěla
##chodu
kontak
okr
proz
jedná
jezd
Me
##car
musel
##ály
sobotu
zlep
středu
hrát
výrazně
večer
lá
nato
nějaké
##rali
##ávají
zaved
Dí
překvap
firem
nechtě
##ior
června
cena
jednoduch
podnikatel
ministerstvo
##esát
kance
##ováno
festival
zmi
Euro
Jde
##gr
##mar
##adí
ast
##hal
množství
##land
fanou
##iky
Bez
ovliv
průbě
##andard
vzá
hovo
potrav
předpo
nejvyšší
dny
energ
konf
pátek
##ůr
##šil
af
český
##rb
ženy
oper
člán
klas
Rozhod
##kor
novou
majitel
Olomou
olymp
raz
una
okol
##lar
výji
kur
##ací
jenž
val
##ávno
rizi
hlu
místní
he
##etu
rodiny
konkur
##eš
##lob
##cemi
##zo
maxim
následně
Rob
zdroj
října
##ont
náměstí
syn
##lev
##tera
ztrá
lete
někdy
sem
nadá
dobré
kilometrů
##níka
aplika
zpět
medi
oba
postupně
Jenže
Takže
##til
sva
příslu
nou
##žal
náměst
Vys
pozna
Ham
Dob
##tně
fy
##tili
všem
##áti
zpo
Jsou
##endu
prosince
##olf
napad
napo
Sput
adr
přist
##sen
vyvo
KS
neod
Kalou
Bylo
##střed
Ani
srpna
##íd
muset
##wit
strateg
Dnes
ete
##ción
např
brat
slova
takzv
ju
úrov
##tv
##lová
angli
společně
Franti
vn
##lap
času
8220
##ůraz
reali
Mil
Ind
najde
přá
deb
rekonstru
Dě
##mpatiz
Ze
určitě
stanov
pomá
##ja
##oub
zprac
Hrad
spolupráci
desít
pev
úno
tolik
##gran
##ign
##stoupil
stop
En
zni
živ
hospodář
##stoj
ať
žal
##jmu
##anu
čím
Is
vhod
začala
##účast
málo
rost
konfer
Fin
vidět
Něm
sloven
alespoň
dvěma
taj
kost
##náct
čist
##enosti
##volu
##rab
autobus
obvině
##ávis
##opřed
##ivně
##ýš
##ger
##kol
##kový
pomocí
zpě
##čný
##míná
norm
Pri
čeká
práva
##iska
hlavn
##all
smlouvy
řadu
kterém
##něné
Ned
sub
##zní
Su
člově
státy
napro
##kázal
nachází
stalo
skupina
resta
##nické
institu
Mer
##íte
hodiny
většinou
##kej
##nách
Právě
naj
Druh
dopravy
poho
Ste
odsou
zeměděl
Ser
nejv
##sala
shod
hu
##él
jasné
##ile
posí
Ond
želez
druhý
##zá
##hlé
vlastn
Profil
funkce
světové
výbor
##káže
##ama
hasič
Británi
##zuje
skvě
dodává
Sputnik
vede
##niční
Nech
Svob
většina
##tou
##rip
příprav
edstav
lit
2008
Navíc
Os
hvě
Odpovědi
pochop
prová
##dit
Petra
Spojen
##žná
##žené
civ
dnech
2009
ši
přiz
jejím
vrá
příspě
##bul
NATO
efek
přesně
Štít
úřed
refor
čín
předchoz
rady
##ista
taky
Přesto
posti
potřeba
Stan
séri
Inter
zbo
##tím
dře
Ge
sho
300
or
nevě
##ilan
##áda
##vek
naprosto
##mně
počíta
nová
blo
John
##han
zi
hrd
##jmy
##žený
Během
uč
pres
##ňují
sociálních
Hodnotit
uk
policejní
##říž
##stala
stro
##aty
Karel
##mbo
diplo
##pos
Sympatiz
eur
Go
konstat
spl
uvádí
Položit
Štítky
sestav
soused
Sympatizovat
##šku
nelze
Boh
195
žádný
Si
daleko
##komu
úřadu
rozhodl
věcí
far
##ington
##ald
##řské
##ino
Nor
smrti
##ini
Fi
##luví
úterý
trh
provozu
kola
##ader
##gi
Hu
videa
auta
bí
Sý
údajně
přišel
##rej
přibli
soutěže
vyrov
Každ
nastav
##vič
vyv
##hání
sním
##ávat
Car
domů
starost
##nů
Michal
žena
##cel
##sahu
nově
45
##žuje
##nějších
pát
Kv
klid
velice
##niku
přísluš
For
myslí
##menal
##rý
poru
jedním
Hla
Ved
zpráva
takov
neob
důsled
alkoho
nemají
KSČ
Star
nezávis
můžeme
tá
muze
##boj
jiného
##plat
ocen
Karlov
podot
náklad
Pat
Vět
gól
července
jakou
ostatní
Mas
demokracie
##ori
##dají
##lim
##lili
zveřej
Tato
euro
##mot
funk
##har
našich
bohat
Miroslav
ejm
kop
##kojen
hlad
##der
států
rela
Putin
##minist
##abili
uv
##ever
##cho
##rozen
##zim
nesou
##nilo
výsle
Tam
příležit
##inách
Ost
sti
řada
anti
hrad
Ot
vítězství
uži
##red
Micha
takový
pokus
Podob
Mosk
místopřed
vzdu
##DU
ben
ostrov
##one
##krom
demon
Win
získat
##nami
Tě
leti
právo
##řech
obrany
sama
Ni
fakt
stejn
##ult
sly
stroj
kus
##stvo
Mlad
přem
Ano
##nímu
myslím
fa
usku
##atu
dek
##cu
cho
##dub
nepro
Ter
Že
odst
formu
Teď
dostane
internetu
##nictvím
čtvrtek
##koj
svat
##gram
arg
financ
##rovství
výsledky
národní
##sně
iD
##zně
Nik
##ativní
Rakou
tvoří
##vykle
tor
poslanec
návštěvní
Jaroslav
vztah
VIDE
##ep
##lali
##řek
českého
Myslím
pozit
dev
not
##ovět
typu
##TA
dvoj
budu
vaz
body
##rona
působí
Slav
VIDEO
výši
naz
důležité
muže
terorist
##ters
dve
prostoru
Zd
##ede
##rávu
měsíců
dovol
san
téma
##kosti
##TE
nemo
kles
##slav
33
musíte
neděli
nejvíce
agentury
Kdo
nehod
##oně
##witter
##ach
cestu
##vál
ste
hraje
pocit
##nek
Například
pracovat
účin
bývalý
was
věku
podmínky
hokej
zdůraz
##ens
##ingu
Her
kamar
##EU
##čilo
Jejich
##isu
Alex
nest
##šlen
turna
museli
2006
února
mlá
hejt
udělat
Ag
jíd
kandidát
##měru
kancelá
dot
Kdyby
##acebo
americké
##ashington
Vladim
defin
naši
##teční
##lala
verze
##pozice
trenér
nadále
##nos
nutné
8222
rozpočtu
kři
Pla
uprchlí
zk
zástupce
##řené
názv
dostala
uprav
ml
posu
teprve
mrt
byt
rekla
vyst
Plzeň
Sně
Asi
##wn
níz
navrh
zemřel
povol
skoro
##entu
osmi
##toři
##zrael
Střed
vězení
obnov
##anta
prohlášení
poměrně
řešit
komb
jiný
podzim
##ík
Nečas
nebudou
banky
Česko
##ovanou
sig
nabízí
králov
Wil
prodá
serveru
centra
parlamentu
##hdy
běž
poplat
2000
Pot
##véd
odp
rozhodně
musíme
##chov
##mech
stoup
čem
##cov
průběhu
##ket
mohly
říct
##wo
##ádu
##rakter
##nácti
stanice
2007
vním
##lid
noci
mis
Lo
iDNES
stru
samostat
cílem
svoji
Nová
šesti
vysvětluje
trén
dostup
hrozí
On
##ejte
změny
##rn
##ondý
##pat
##stické
útoční
refer
##pres
here
nek
tř
Washington
##ster
odv
zan
At
##ír
Lidé
svobod
##mon
Ab
zkušen
slib
Společ
off
##uer
##řady
##sion
##řka
jméno
kolo
neboť
##olv
dělá
ein
umístě
Policie
podrob
##ďar
dalším
Ště
ila
emi
person
důvě
pozici
Také
soukrom
Ver
##kala
ich
##fa
rozpo
sportov
asist
Hlavní
poško
OS
Sýri
schů
ud
okolo
probl
řadě
společen
##ovaného
občanů
polovině
##idu
budete
##iční
symbo
udrž
zahr
Ještě
důchod
byste
Andre
lat
Sm
Ostra
hlá
##lti
vym
círk
191
vnitra
nom
mezinárodní
##áme
##hléd
Vol
krize
Bla
##ans
vládě
Val
sh
Or
neg
zim
##lig
hum
web
##éry
dodala
realiz
video
Šk
pil
Praž
kry
prostřednictvím
fon
##hlíd
kal
##rovna
drá
moment
potře
podnik
vytvá
vylou
##óny
píše
##ex
2004
Sk
vývoj
podobně
##ng
dlouh
půj
šanci
menší
vedoucí
jít
jednom
##prá
##haj
##pli
##řitel
##rostřed
##rava
##zev
Českosloven
Všech
elektroni
pohá
historii
svěd
Ros
##ána
##odaj
##vou
zji
kritiz
zaměř
Con
##nete
##jích
protest
##blí
extr
Ky
Nez
prakticky
##ickým
##ika
takto
lépe
##šker
pln
rozhovoru
##pou
neměl
křes
restaura
tun
##ass
dostali
bou
příjem
Mod
##ujete
směrem
dní
##ozem
počtu
##kova
zatímco
2005
armá
rem
##rand
charakter
##tit
klíč
doz
znamen
osobní
cesty
zvlád
platit
zúčast
Hol
Ministerstvo
##vodu
veřejné
rozvoj
ital
400
dvacet
dle
veřejnosti
##jímá
kapa
Zden
najdete
##bav
nechce
am
ště
dení
##lub
##vědom
finále
Bude
pravo
hranice
pově
##řít
##mír
pí
mimořád
##níku
vypl
oblíb
Brno
jiho
vyrá
dro
konstru
##mosf
Jo
bi
studi
##šně
střední
Byla
tehdejší
##itě
##pon
nast
úspěch
##lus
##avad
Proč
pre
šlo
nicméně
##cházejí
Sněmov
##tar
vybud
různé
krok
form
##pustil
##mila
velká
##ase
##arma
##jit
přece
37
##živ
přijde
němž
uspo
vydání
současnosti
sdru
##žela
rukou
ge
##nad
##ene
vysí
požadav
Per
nijak
napl
spad
Itá
posledn
##rz
Russi
původně
Ov
##nam
Její
##islav
zaj
dnešní
##tro
Nak
##ňovat
von
podobn
výhod
Yor
##vám
argu
##Sc
uží
roze
Med
odpověd
Jest
2020
politiků
host
brzy
##vku
osobně
##pen
381
##ww
Díky
##anov
##hnout
pohledu
malé
ep
nevid
##vil
KSČM
##řaz
zdravotní
těm
Har
We
výboru
standard
leží
pru
zkuš
zvyš
koncem
ij
nějaký
##au
##ivn
policisté
##lík
Nyní
Větš
Jin
přibližně
máte
Rusku
##forma
tvor
Zatímco
desítky
Sobotka
Král
adres
sbí
nesmí
##rok
Mon
##ýval
##tali
##rovol
Nad
obžal
přech
jednotlivých
zranění
neust
starší
premiéra
dvak
##krajin
záležit
www
dlouhodobě
sexu
data
zemích
Nev
zapla
zahraniční
##tt
původní
průměr
##átu
Ke
##rální
dospě
##oud
dům
disple
net
##vka
Sen
##advaceti
princi
vystav
Německu
profesion
##lor
Com
##tivně
##lají
náklady
bit
##ian
nástup
nebezpeč
vzdělá
Spar
##oku
Aby
##ski
zpravodaj
##valo
Naopak
##čeno
okamžit
##ts
##spíš
zám
sni
vyž
Samoz
##bud
potvrdil
hl
poj
ministry
##chop
drob
##wi
192
rádi
##bami
požád
někteří
##čemž
##adu
##ést
##žet
Američ
sedmi
měsíce
##ovice
něho
Ústav
evropských
##zovat
##odní
Fili
vysoké
podobě
##zace
##žovat
statist
##con
Zde
As
##ble
spíš
ist
pana
nejde
Mno
němu
asn
pokračovat
log
##ampion
##álů
plan
Ře
násil
nedost
ukrajin
##slane
fond
krimin
Jiho
ráno
Lit
Babi
vyhrá
člověka
218
vík
##tiva
DP
muži
plánu
##ür
revolu
transp
##nutou
##cid
reži
evropské
amp
##reg
osla
Vl
atmosf
##ora
stejné
Ruska
dosáh
neú
čele
Mad
Jestli
##hodno
##děli
##ria
rekord
nejprve
##isty
##bali
zaplat
obvykle
hlavním
KDU
vládní
##mili
Por
##bora
##tik
wh
analy
echny
nemusí
spr
##orem
propag
ili
Kan
záchra
jejichž
návrhu
Poz
##láda
koru
Prez
prvního
##zel
dopravní
inten
said
Stud
zdravotnictví
koleg
##nali
odpoví
tisíce
proce
spotřeb
starosta
39
rob
Var
##orů
doh
olympij
##gh
zdarma
##nějším
deta
nim
činnosti
##rek
výběr
##ink
from
koalice
##čná
přičemž
hlediska
##áž
Pardub
spis
ryb
have
léta
důkaz
##moc
nahrad
našem
režis
##zkumu
bom
##che
Kam
##znamená
Andrej
stane
##ess
##áhl
##vatele
rychlost
Ir
Min
hři
San
##alý
##ládá
##liko
televizi
titu
chrá
složit
Tím
2002
případně
trá
Bí
prom
kultury
Ap
politici
druhém
Bra
výsledek
tan
##emie
katast
paní
zneu
super
##enu
koncer
##eného
liber
Zemana
##ovce
automat
chceme
bezpe
##fe
##jezdu
jednat
##ous
bl
členů
Rod
##žených
prodlou
##jetí
Parlament
závis
tvá
Miloš
korup
budovy
bec
##ány
Pom
##HL
problem
začne
pokles
##mana
##vok
hem
vst
funguje
##ratu
douf
##čera
vešker
dát
pracuje
energe
##čkou
dist
jaký
##ovými
Char
sdělil
##aně
nepod
média
památ
republika
Babiše
zadr
tal
##zal
Fir
##átek
zprávy
##hají
skupin
spol
začíná
##cího
##ůležit
náš
dáv
diskus
ovat
mistrovství
úrovni
ano
##sit
získala
stavby
bohužel
2003
daj
ede
##str
chlap
##škod
##oro
potvrd
chyb
Protože
ipo
##žer
nsk
růst
zdraví
opti
pravděpodobně
regionu
jader
Násled
Java
eu
odmí
nahrá
Ca
koncert
vládu
##lex
útoku
pochyb
centru
Pou
rokem
rozp
##ás
##kop
##bro
též
py
dramat
argument
vodn
Zároveň
Lab
meda
neví
možnosti
Tele
vzhledem
oproti
Posled
##ju
prosad
##nitř
##vedl
##ropo
Voj
pamě
přítom
Rich
vzdál
mluví
žije
těžké
Francie
propo
##tions
prvních
Bel
##říve
##lovat
##stroj
zvolen
Poté
Vyso
AP
děj
činnost
##fu
start
##šťov
MF
Bro
Dra
prospě
obč
Národní
lékař
Špan
nas
edn
##jedn
##emoc
##itek
Svět
bet
##jmů
podstatě
190
hranici
##těte
##áč
##áček
absolv
chtěli
##lého
myšlen
unik
ivot
##átkem
ruce
##aku
##ismus
##org
##idla
##lostí
tímto
ročně
##ribu
zástupci
Jeden
fyz
##elí
##isla
2001
Ak
##pověd
státního
číslo
##výcar
##kolog
##zích
SPD
##mal
##valy
##livě
tov
celého
##inaci
Ivan
seve
##amin
##oví
názvem
##čené
nemocnici
##ure
dobrovol
##isté
zo
##gres
potenci
přen
##tat
spu
##vit
smlouvu
pražské
vyrob
trans
Stejně
Každý
cesta
Premi
chybě
cht
Ří
počátku
stovky
majetku
ČSL
##fik
vnitř
##ling
našeho
Gen
inici
##ktů
přátel
hlou
popsal
dovo
důvodů
Sto
nyn
ane
hráč
zvlášt
minutě
##nicích
chu
150
začali
##olu
##oli
ilo
##rají
zdá
díl
##jil
##rodního
barev
##itelé
silnice
##hel
Až
Fer
##ris
lim
setkání
Brně
osoby
##ré
fanouš
iprav
oddělení
zvíř
Japon
48
hlasů
##ight
##ickém
##řela
##šné
Mc
utr
dvakrát
Pu
Hy
Ur
##int
zvy
##ira
pozd
JavaSc
Prezident
##inace
##riptu
##dci
hlí
brá
##nají
zpr
zapnutou
nechal
stad
Ga
Th
nižší
pravda
magist
převá
regist
##ónů
##finále
spravedl
rezer
Tra
nemovit
jednozna
doplnil
nebezpe
##ount
##ávání
amb
Moh
vystup
migran
zrovna
##avor
Kalousek
Rud
##star
Ministr
JavaScriptu
případech
sel
##ladu
##kan
##kých
##ička
prezent
členem
neroz
##znal
tajem
měsíc
propu
předmě
55
mech
otevřen
##ovský
46
docela
Jsme
##ced
nalez
prev
místech
##děla
Bor
výše
umění
##etě
Vždy
krás
Chtě
používá
okres
Facebo
jasně
##ťan
úřady
školství
Dod
speciální
cu
životní
Zdeněk
zobrazení
##zny
##jíždě
sest
prohl
léč
zvýšení
##exist
smí
ruské
najít
jistě
pozice
av
Brus
rodiče
veřejných
karty
mand
##lii
nekon
příro
344
##ica
zod
tohle
##růst
##nech
vysvětlil
Mag
1989
##kář
kampan
Tyto
##jel
##jednou
##zda
##aného
popisuje
44
žalob
##klid
##žím
slož
dosavad
##láš
##klád
Dan
rodn
fi
vych
dokáz
##enátu
záchran
manažer
agentura
##šila
migra
lednu
albu
Cent
obchodní
##rny
uměle
##avatel
Králové
##ýt
společností
hráči
Han
vrátil
##kán
rozhlas
##form
péče
vystoupení
Kub
viz
začít
##zdí
hrom
Oba
miliony
nějakou
##znamu
##razit
bezpečnostní
##ym
soubor
lidmi
ochranu
lik
Prav
Afri
žá
obchodu
##řena
obcí
skončil
43
ga
##ilu
Rat
##ňování
##rech
armády
elektri
##zaci
vzájem
Sed
seku
##ilní
##identem
konkrétní
šampion
Češi
fron
vis
##žování
teor
##kuje
Cí
##itou
mužů
##vin
ukaz
sur
nau
festivalu
ct
##laci
##násob
podobné
nejméně
##ies
Ži
##ternat
nesta
Hel
celém
oce
přišla
hlavy
Kvůli
lou
Londý
prostředky
Velké
Slov
verzi
nedosta
obsahuje
Kraj
knihy
vodu
##onec
odehrá
objem
Prů
##ráz
##ravě
will
architek
spolupráce
nesp
uživatel
Ph
vyře
tre
##nie
##stoupit
poslanci
##ley
stov
Roman
výmě
Přes
odpad
sezony
pozornost
dig
každé
Er
nená
zaměstnanců
vyšetřování
druhého
Milan
##iku
Kry
zlat
nit
##pol
parku
letošního
výjim
Máme
Prob
Ry
Den
IS
Bal
##ónu
výzkum
muzi
##čítá
střet
##par
vrátit
##klo
odpoledne
##nává
uvol
příběh
předtím
podíl
hejtman
prázd
42
##zech
##chů
krátce
spokojen
muslim
rakou
označ
struktu
##imi
rodina
##avě
jízd
##neme
##vost
nazna
##terá
bankov
##line
generace
ori
ukazuje
hodn
##BC
jediný
##dec
policii
##razí
takovou
##tají
Španěl
žid
ulice
Schwar
věří
dvaná
vztahy
##ah
##ía
##řiceti
##ační
##esáti
daně
stoj
##áno
Město
oni
regu
Toto
##něných
schvál
pojišťov
##alizace
##kového
taková
##říz
rozd
odstra
Vzhledem
Západ
##edera
dává
##RS
vznikla
hmot
zased
slab
##ould
uplat
skutečnosti
médií
Václava
upozornil
příklad
nábo
občas
saz
Nakonec
zelen
musela
energie
Spojených
síly
41
průmyslu
htt
zkušenosti
zásadní
navští
##teln
devět
Polici
kem
časop
49
velkých
tabul
##pustit
##átora
eli
kre
válce
politiku
##mem
využít
evid
##mile
rus
zůstává
většinu
ber
smysl
působil
kampa
##chodem
speku
vyjádření
##smus
telefonu
vybí
##eder
narod
##štěstí
##rovi
vždycky
Kore
lokali
##ckými
říci
##tejte
##čím
qu
stanovi
##letá
fotografie
Air
přines
Fil
sezoně
volební
##stvím
čast
##kel
##mut
ال
##oče
senátor
dnů
výz
skute
##ware
Oka
legisla
##ňů
digit
Len
Alexand
kaž
Bur
závěru
městské
pohod
kolegy
dotace
cestou
vypadá
##stin
War
jednotky
dalšími
radnice
nesouhlas
shro
##kého
##ente
konec
Proti
česká
schvá
##ctví
Možná
##solu
osud
tek
##lární
zisk
Div
##que
##ývají
##lod
##eku
nedávno
sle
orig
nebyly
špatně
##klu
hodnoty
pravidla
prezidentem
##ujícím
van
aud
##ect
kterému
zboží
zruš
propad
##ecku
ena
poznamenal
prior
obdr
Reg
osv
75
repor
student
mit
ped
kuchy
##chem
demokrati
Samozřejmě
chování
Paroub
##čnou
webu
název
##ády
kl
##mout
##dows
nápad
strom
akad
##tos
důvodu
##ivu
veřejnost
Gr
##esta
okamžitě
administ
buď
Sil
nepot
##stit
šed
##mněl
edev
dél
Okamu
##rala
##MS
##zervat
##sledy
změnu
promě
##ery
otec
mluvit
kladn
iv
hrál
troj
##čena
multi
novinář
názoru
konferenci
boji
trag
##ras
##ip
Mám
režimu
##moř
reál
jih
František
diplomat
koste
##psal
areálu
politice
radik
##stili
mne
částe
nejbli
##prava
65
##áři
radost
Německo
příč
politika
minimálně
vzniku
odmítl
##ární
Sever
Ves
problémů
poko
Ing
vedou
##ally
dobrý
##čej
bezpečnosti
Český
stabili
##níkům
otázku
náměstek
Windows
Jaro
hlavního
třech
Pho
Dvo
##níkem
sítě
##itelů
ředitele
rece
##vem
stál
OSN
##iss
bole
##žena
škole
##zet
##ovaně
neexist
Dne
most
papí
sportovní
Jakub
zvu
slovo
udr
51
56
ún
poro
Nebo
Švéd
Německa
denně
ins
výš
přízni
uvid
zápasy
##hodě
##tvar
##ain
připomíná
jejího
##éře
text
bydlení
dali
představuje
chud
Původ
##30
Ostrav
onemoc
##tic
Kor
Zu
vzor
Marie
Jedn
Vít
doprov
47
miliónů
plav
agres
západní
dosah
Ven
přihlá
##ham
Př
režim
##mis
civili
role
vaše
energeti
##leté
vydě
##teré
dvaceti
prosaz
##ičky
##wer
##roslava
dala
##telu
Letos
##romady
##eld
létě
Více
##nář
výda
Des
Británie
soukro
out
tentokrát
širo
existuje
tku
##RA
prově
úvod
ochot
Krá
hat
americký
Nový
##af
Maďar
port
velvy
##tý
svému
nábožen
##sazení
Cho
eta
##městnan
žádná
boje
##ód
##ban
otázka
Reu
##jede
zbav
##lynu
##mun
Poslane
hlubo
syna
německé
vysv
nepoda
mani
úvě
##ánu
parti
##časí
##vací
považuje
##vější
park
##ciones
ali
##kost
Zel
extra
pracoval
dopis
primátor
ner
ubyt
likvid
respek
amerických
loňského
cíl
stadion
##leli
##stila
životě
vyjad
politických
nah
##skytuje
minulý
##vn
centrum
##ake
vrchol
##ów
rozum
spoustu
##ade
Může
##padá
několikrát
najednou
Martina
hol
##yer
vez
##šené
končí
oč
Kur
Žád
subje
##lada
mír
předchozí
odmě
dohody
nedě
řady
žádnou
##želi
svo
##fin
Met
zápasu
Nejvyšší
členové
##áře
zajistit
hov
Francii
Twitter
zazna
##itor
překon
kroky
##lic
##áty
podniku
##jících
obvin
Reuters
##cházet
ran
ozná
##leslav
dojde
##šak
takového
podotkl
chybí
Zlín
seznam
stroje
Stav
domov
vyprá
poved
změnit
týká
##ždění
Evropská
dar
hypo
konečně
##líně
Jiřího
há
##působ
##oci
##ram
hlavu
##ktiv
podeps
##jené
##čích
Qu
každého
soustřed
potr
Marek
pozitivní
##entní
alternat
##iště
##átů
případu
ligy
aktivní
dok
##erem
poslanců
dvoji
hudební
Nicméně
##ano
snížení
zdroje
směř
zachy
ina
##ric
zah
##káž
hot
dění
##atoli
cestě
odm
Angli
Slu
nechat
64
nejvý
##pi
hodinu
omezení
##nily
wor
sociali
občany
600
prozrad
Buděj
klient
uměl
Die
soutěž
##xus
##tive
rozm
obli
chem
##elní
fakul
Net
mladší
HD
Irá
##domí
pojist
šť
##teb
zbraní
99
moderní
Pal
##iskup
##ish
DNES
##rub
mem
bývalého
moje
189
Vláda
povo
Soud
##váme
syr
Tim
ohledu
##čt
potí
Slovensku
Mac
zdrojů
neměli
dodnes
sledovat
koho
##něný
natá
archite
PC
kamarád
kontrolu
sdí
Všichni
##deme
děl
spravedlnosti
##ott
prodeje
odhal
pochází
koncep
Karla
##vést
Přit
##ib
had
this
##ýká
investice
vyhrál
Merkel
nádra
útok
poc
Luká
play
gu
životního
Schwarzen
případů
54
oslov
absolu
##nutím
zavá
znal
52
Ed
rozli
neud
uvě
Sup
##nově
##álek
demonstra
ejn
elektrá
prosinci
opu
##Dr
ovlád
náhod
##10
##here
##ota
kulturní
It
Jedná
##OS
předsedy
##ovol
##poz
Bru
idi
šet
más
sdružení
dneš
pravidelně
konz
počasí
China
Ukrajině
Bohus
##tip
##leně
vážně
tradiční
zbraně
Ostat
Mic
označil
pravdu
Kap
line
slouží
##ida
hráčů
Auto
kru
##ženo
sítí
count
Dem
Sna
nemě
vedl
japon
pořádku
jejíž
brněn
oslav
ostatních
oznámil
nákup
vylep
počítá
##sland
fondu
podpory
těžko
inspek
svobody
glob
vojenské
##sila
Hlav
tuzem
zaslou
##sat
Bran
##timet
##ph
ada
Dost
##vist
sněmovny
show
aplikace
##OR
hráče
analý
mor
nece
raději
vykon
voda
##leh
hlasování
Přitom
##ree
##telné
obětí
stavební
českosloven
##čel
regionální
800
Iv
zauj
dest
rozhodla
57
tram
Filip
zásob
mm
##pán
##ales
##ývat
##itelem
proh
celkové
řeší
##něji
##race
Dva
Dále
začalo
divadla
metropo
dohromady
komplet
##itelné
##EZ
ona
vesnice
letošní
##rex
adu
Součas
##lína
byť
ih
Pavla
stráž
##kém
mého
##zemí
go
hře
usil
##lohy
##větším
spojení
maje
proběh
jinde
Dr
vojáků
můj
dokáže
##ročně
Chy
##pěl
závaz
Měl
cm
##áci
##tečné
snadno
##fikace
##rant
Nes
##livé
obtí
rovn
vyzkou
péči
delší
tep
Sc
##cena
Roku
rozhodli
zahraničních
##ovn
nikoli
odkaz
##pravě
##IS
##ůl
představit
##voz
průmysl
půjde
Lad
album
naci
vyrábě
smyslu
##gan
knihov
##zivní
Mimo
exeku
zajišť
kriminali
##ovka
##likož
dlouhé
##slan
vyhled
odliš
Někteří
##cia
emo
mav
ekonomiky
věz
Sez
tělo
vidí
esto
úko
##zná
infra
nemohou
vznikl
Robert
##ola
zájmu
nky
Sýrii
pouh
##xe
dalšího
technologie
zabez
##tah
##mil
Jind
nezbyt
tel
59
domác
odmítá
Většina
##ien
mně
plynu
druž
##těž
škod
##struktu
Nové
##NA
Česka
prací
povinnost
##IA
kami
pit
projekty
galeri
květnu
Všechny
##ázi
tradič
baz
druhá
konzervat
##ablon
nikoliv
##illa
padn
amerického
Proje
váž
##dor
rozdě
mrtv
##ecka
pobo
iP
origin
kní
zla
##ovic
ulo
zved
tomuto
obci
Sim
univerzity
Vladimír
##kola
##sazen
##zt
kolika
##lich
ekonomické
##antní
chci
Některé
týdny
minulého
žeb
doba
orient
historie
Již
Adam
Loni
neustále
vyjadř
Nep
##tují
Tech
Aktu
riziko
Los
Prostě
Škoda
vir
Dos
císa
trval
##řich
vydal
Poslední
##leží
vztahu
nedostat
jm
##enky
motiv
mláde
##řily
Svoboda
použit
Hon
dubnu
##dění
58
podvod
místopředsed
##ele
nemohl
nájem
podporuje
##čtí
##apar
Třeba
povrch
cvič
MB
##odob
##ados
potravin
Sal
##ghá
auf
bezp
css
hranic
Paří
Tehdy
drží
praxi
červnu
ren
chv
využívá
its
##čce
vypo
silnici
##noj
indiv
##lové
pali
domní
ture
ročníku
mladí
##razila
##ováni
itom
kterými
vozu
Spe
pacha
třídy
jménem
imi
korona
názory
##letého
stráv
Aut
policist
individu
varian
53
Lud
někde
zrušení
přiná
ekolog
kvalitní
uvaž
DPH
##lesk
svaz
studie
výjime
##denti
pán
činí
bývá
částí
Ondřej
centimet
##ředu
Dol
děje
##lice
##udí
schod
##arch
dopravu
svoje
komunikace
alkoholu
Zv
dodrž
neo
##ůžu
##los
bio
##liam
##ladatel
##adě
graf
ochran
poš
##grafi
##ding
hotel
potřebuje
##nicí
někdejší
přís
orgán
Senátu
##pal
naho
podezření
otázky
Lé
etn
##inku
vedením
obsad
námi
březnu
ostatn
mobiln
##jícím
šéfa
Fak
Europe
poloviny
pozn
váleč
přesu
Ture
slavnost
Am
nejčast
obvinění
klimat
posledním
Dani
pojištění
Ev
správy
##ones
zodpověd
##ima
##ovatele
jinou
hledat
Dop
Pek
anebo
180
Masary
Les
vrtu
Bohu
nepře
##rami
##hlo
hospoda
kamen
##tky
krizi
Ač
někoho
poslou
režisér
TV
##spek
mot
AF
##rova
jedená
##oty
směru
zápasů
naje
##ěh
bře
disku
##anů
lav
##slanec
1998
##čily
##OV
cca
důsledku
lic
cykli
Bul
diváků
distribu
majetek
##ítek
Dlou
Fr
státních
##SA
Společnost
##šetř
přelo
odsouzen
##čením
strach
MP
stylu
advok
soft
tiskové
podmínek
patn
ač
nejvíc
##nických
uspořád
aktuální
Měst
##rol
zvl
srovnání
inc
##tn
matka
##koup
události
jemn
seriálu
pracovn
##ovaným
stn
Jam
which
bytu
účet
fig
říkal
prou
kilo
##udek
obavy
187
##kres
nef
příspěvek
porov
bor
ráda
Kat
úse
##ional
komunisti
armáda
##gar
##ischen
plně
domin
1990
anga
nádraží
##nce
erv
Ange
letiště
úz
vysoko
zasah
Eu
shromá
velkým
##lépe
##luvil
poráž
Vše
Státní
domě
pole
konflik
Niz
##cová
human
Úřad
incid
tlak
##set
přesvědčen
Open
##eným
podezřel
členy
lidov
dětmi
osvob
současně
konstatoval
architekt
Muž
##tolog
##bere
pomalu
televizní
##ktivní
jiná
štěstí
nejmen
východní
procesu
1999
šance
##rof
##dání
poruš
vadí
ent
mezinárod
##tex
ohledně
vytvořit
ministryně
zhor
převážně
kontra
##kovy
skončila
raket
Řek
využití
car
Islám
přestup
Svat
##čený
poslane
bojovat
##mann
##brojen
řádu
Šp
škola
Van
Spolu
##desát
výkonu
neměla
tab
import
Goog
letadla
musím
##maz
##dej
špič
##ovské
##šly
důstoj
značky
stejný
doslova
##žnost
tvar
série
modelu
opozice
##agog
nespo
definit
##skok
chtěla
tky
akcí
objevil
přišli
vozidla
svá
chystá
##bar
aktivity
Kos
pora
dostanou
Pen
##ával
nechy
budoucnosti
##lovou
navá
možností
Ac
Výsled
NHL
hez
Českého
prostředků
začaly
Bohužel
##edi
útočník
dár
##ln
takhle
izrael
sovět
120
soutěži
Míst
##sche
ptá
jakým
##ovatelé
velko
##lejší
respekt
##énu
Prov
Lou
stavbu
##und
##čín
##mr
hodnot
Donald
inte
Sest
Cor
jaře
nejhor
desítek
stránkách
##horvat
udělal
dla
kontakt
zápase
Ank
Ostrava
skupině
odkud
znak
výročí
##cip
pozdě
##rie
##rich
úsp
##jat
##ney
Cena
roste
komplex
##top
##řený
##inky
##asy
postavit
místopředseda
Est
EEU
##hav
žebří
Právu
padesát
Problém
soudce
EEUU
voličů
peč
Rusia
hodnocení
Švýcar
sbír
##ránce
negativní
Red
posou
věde
vyžad
##lových
neček
nevím
hab
mechan
činu
##nický
oznámení
##jeli
novým
##šili
zaměstna
##kovat
vin
##tivn
pohybu
exter
##nera
ochrany
Micros
zpěvá
stávající
Boleslav
##jo
Českou
Ban
been
posil
##něním
market
kategorii
##iru
Tro
das
správní
jména
čase
opakovaně
údajů
Slová
Evropa
##broj
částečně
piv
uskuteč
Soci
jezdí
##tury
##istů
##mění
noc
příbě
ret
##řetí
říjnu
##hala
##jíž
fungovat
neuvě
bur
kampaň
Nok
sum
postoj
kříd
##80
mou
May
priv
Ger
Čá
kapacit
stnan
zbyt
nevz
zvláštní
smrt
hovoří
pokračuje
luxus
Chceme
trestní
Bruselu
Místo
##morav
podpora
Lí
mění
Sh
Největší
politickou
##cát
okru
banka
spousta
chtít
trati
předlo
Kateř
měsících
nedaleko
Vedle
##jila
lékaři
Rych
Barto
schůz
těla
zkušenost
rove
##mum
zájmy
##fikov
polovinu
zkra
eny
odchodu
##růz
nedá
Meziná
přišlo
kolon
přijít
samo
čímž
prohrá
teploty
ků
##írá
##ráti
Krist
všeho
Firma
časem
dopo
dochází
##old
pojmen
únoru
Bus
firmu
##ación
zemědělství
##řeží
kdysi
Most
dé
křesťan
##tivy
Tedy
trp
Brna
##razili
podání
mateř
nese
lem
##nové
vzrost
##ara
rozlo
##poli
legen
příležitost
vozidel
přenos
##aněl
srpnu
##day
hvězd
šel
silnic
Itálie
ztrat
neh
kabin
##vent
generální
opa
ind
španěl
##iče
aspo
kos
##letou
##stil
ub
největším
fotografi
##ami
oblastech
Terez
každém
neúspě
úroveň
termín
Org
průzkum
českou
přiznal
##obec
##pev
svazu
skal
očekává
85
trvá
char
hromad
demokracii
##jícího
obecně
Wor
interi
##cené
cuk
růstu
cti
prefer
Kou
atd
##low
his
nesmysl
nezaměstnan
Určit
zvítěz
Celkem
zkla
Tady
najevo
moře
##ero
##ito
vést
Izrael
veřejného
nejm
metr
##raž
##alog
##iat
kav
věd
byzny
ČEZ
reakce
##zdory
přiblí
##tok
obhá
občané
obr
asto
##ůležitější
##íř
vyjádřil
státech
##nál
volbami
horší
Pres
Ústí
Daniel
organizací
##rik
##čík
zaplatit
romá
váno
Váno
Che
kazn
Tour
třemi
66
potřebu
upozorňuje
AFP
##tala
##latí
ústavu
stv
prvky
##onus
budoucnu
##kování
islám
lib
těsně
##hraje
jižní
Vid
##SS
##kým
nád
país
Arg
Podí
kauze
postavení
rodinu
##tace
Ukrajiny
písni
moderni
použití
##čují
Spojené
předčas
tat
Russia
nie
ruku
Jihla
##lár
přeru
tábor
##inami
přez
zdůraznil
průměru
Přestože
##ovaní
spočí
Tři
známý
##iew
hudby
psycholog
takových
herec
rekonstrukce
77
vozů
war
veřejně
Has
##ay
##xy
##jela
vychází
nehody
maximálně
##lému
##inc
severu
##hne
zastáv
stačí
pilot
Srb
podla
budoucnost
zůstal
##terie
##DA
pacient
Mor
##vad
tvůr
staré
následující
sal
náhrad
Av
zdr
místních
oficiální
PS
Štěpán
lize
##ream
představení
přet
Krej
závaž
poby
##ET
##rian
##ejí
touto
##fikaci
síť
projedná
chá
hotelu
##šením
top
studia
##čková
##ret
hes
federa
coby
##láv
##řením
kostel
##uš
##lela
Skup
zran
nejlépe
vypu
operace
##cker
Lukáš
##pisy
rozpočet
##hen
editel
##vahu
povolení
##itelně
Číně
rada
atrak
Havel
eno
Hus
cíle
vzdělávání
umožňuje
pořadu
##pul
kouč
Gre
závěre
kultur
gym
žít
62
##avou
třetím
odvolání
Michael
stanici
šťast
ocit
nejdříve
děd
##řená
Pov
pravic
##ben
reakci
##stev
UK
##bylo
##lena
druhy
poně
Kri
deleg
srdce
informoval
##vejte
koupit
Richard
skupinu
Mluv
vybrat
Důvod
Obec
##ovicích
zahájení
##ico
##stroje
zpěva
vysokou
##evrop
hlavou
schopnost
##řeli
elektř
Británii
kategorie
intenz
každou
##muje
sbor
poslal
základních
identi
##tický
Zdroj
razn
závodu
##ovku
##ins
kláš
new
seznamu
upřes
plu
Odbor
míní
koncent
zůstat
pořadí
oboru
obleč
72
článku
##lách
změně
míru
drah
Mik
sus
Anto
jaká
ram
dobrou
Ol
opozi
venkov
##lené
Mos
##áhla
nadě
budoucí
##encí
##pela
nedáv
Nizozem
Blu
pó
##iu
jím
##stan
Policisté
financování
týdnů
proná
uvnitř
svobodu
##člen
sebev
für
minuty
jednotlivé
pokr
snažil
Plzni
pohybuje
Res
zámku
##national
slovy
Jablon
##čných
mak
seg
CD
ČTK
hlavních
naposledy
##tla
reagoval
poklad
zvyk
##žují
Nikdo
chlad
díla
Novot
nechtěl
##vaj
působení
výbu
schopni
devad
speciali
účel
okamži
prokáz
týdne
Lubo
Olomouc
##var
##gn
vydr
stavba
infrastruktu
##gie
desig
##jednodu
ztra
prospěch
##řebí
žádost
vice
hasičů
výroby
vyjedná
námoř
čtěte
##mera
##ement
neleg
okra
##kovým
obvod
tvrzení
Poslanecké
uvědom
jednoznačně
zaměstnanci
žlu
##rup
PR
přechod
dětem
Komu
školu
druhů
Slovensko
vytá
zes
extrém
arab
výrobu
Číny
řeky
United
jedinou
počítač
kod
##bel
mov
góly
přízniv
aniž
##slami
would
odpor
posád
referendu
závěr
podpis
rou
Fal
stejnou
dozvě
pokou
souladu
přispě
Jižní
ohledem
tane
##stvu
mnou
ust
příbu
##ála
spon
společné
pěst
Christ
Obě
##tev
avšak
hř
##cz
dozor
##rd
##konce
známé
##stoupila
vozy
chodí
Univerz
projektů
Anketa
##žením
oficiálně
##bert
konkuren
jisté
objeví
##chová
odešel
objevila
##nej
##hrady
##tost
nechá
událost
##ža
nenech
##oden
Hou
fotbali
##menout
700
Wal
Tho
viděl
pád
bomb
vyjde
odboru
vzduchu
##inka
1992
dostatek
##áru
Peter
eho
zakon
nejspíš
asoci
oto
listu
dalo
odhali
kontrol
##čko
205
daní
Izra
##hot
přeprav
188
nepat
##vor
vstupu
##inem
Bár
##nesl
##sh
Hal
plné
jiným
tlu
nejed
##stoupí
jednotek
bru
##asu
##ward
rychlosti
návratu
pokro
##ear
##ovacích
##inové
sjed
rozhodne
servis
zjev
##řeny
nebezpečí
sjezd
styl
Čína
povod
##TERS
Sko
##smě
##komp
zastupitelů
podm
West
návrhy
vrátí
odvá
##alin
##DR
probíhá
nemám
jejích
unii
policistů
úro
Cy
knih
BBC
##hře
Syst
čísla
##EN
dřevě
1996
Jedna
Vám
Can
Ele
Google
##gal
##jas
sad
soutěží
REU
psa
výtvar
##naj
Gó
komunit
REUTERS
Aust
##ovatelů
vlas
##jdou
Jinak
##rátil
##zie
##sson
jednoduché
1997
##lear
centrální
York
hlasovalo
Tvr
##žívá
186
Severní
trestu
MH
Vla
dokázal
Později
##inec
řetě
rozhovor
Klad
##unk
Naše
nejstar
##age
Vond
ministrem
95
Hos
zajímavé
who
##bili
lig
čet
koaliční
konkrétně
##koval
##ido
předsedou
slíb
##dad
Labem
nach
lehce
věnovat
Kost
obhaj
radní
schopen
Základ
1945
Ostravě
příštího
##overn
nabídku
##šuje
##šný
Určitě
malý
integ
##leka
##ortu
##oth
semi
Liberec
##ráb
deníku
organ
tová
vlaj
Musíme
vítě
konkurence
such
##tka
velikosti
Celý
Eva
rodině
konkrét
řím
pokry
Situ
deví
železniční
kontroly
limit
##asti
ovo
mamin
lodi
firm
hou
Sams
##řátel
zpí
rovnou
Yorku
##amat
Okamura
loď
vodou
##bil
MS
mediální
skr
Tá
Gra
vnitřní
údaje
##TAN
zbytek
dosáhnout
jedni
##AR
##lement
zpátky
skutečnost
posta
##udku
nomin
##ckem
Paroubek
##něna
Zlat
##ejmen
##teoro
čeho
navý
Douf
DV
azy
##jíma
##rna
mobilní
nebyli
##řídit
##nala
násilí
nikoho
bytů
##álové
vzpomín
##eda
severní
Afghá
modely
čekat
určité
##enala
1968
muzea
bank
písem
Jednou
Šéf
zastoup
Miku
Dar
jihu
forma
zdejší
poslance
##alosti
73
hasiči
Divad
##ople
Vlast
##rové
fotoapar
Bohuslav
III
##zují
převez
##rozu
63
gr
nastoupil
veden
domy
jezdit
##IN
menš
Beneš
##lom
přednost
Czech
hal
sli
Stát
##clé
Iráku
##grafie
minulých
míry
uplynu
##odo
hlíd
zabí
##likt
zdi
divadlo
##produ
vědět
##rim
plyn
balí
městem
zveřejně
pape
řidiče
zjistili
Super
budov
##jili
zavedení
##ženou
Topo
mso
apod
adresu
ekonom
##ovýchod
doprovod
ref
stupně
Schwarzenberg
stranou
##cord
stupňů
normální
Sám
dech
##stran
they
pěk
Vil
Mili
esn
příležitosti
záměr
##orge
ozbrojen
bratr
ženu
Ovšem
inou
##nět
ovl
Venez
důraz
aspoň
spách
Sport
Kli
průzkumu
##čených
nepodařilo
##nického
##egen
čtr
Lig
dass
68
největších
primátora
##mější
konference
výrobce
kampaně
Piráti
kompli
Mir
##óně
##AD
Počet
porod
##žíme
rozhodnout
##posud
zjistit
Ať
experim
##áka
##ruhé
návrat
dohodu
přestože
##use
chodit
předem
narozen
##nick
formou
##krátka
Tohle
##pho
společného
##ará
##krá
senior
Men
hlasy
navaz
##cházel
dávno
skla
skončí
minimální
William
učitel
administra
nicht
##lově
dojít
ruského
Čechách
Fisch
##kyn
sout
67
mnoh
favor
potřeby
sérii
zásah
postupu
malých
velitel
manipu
přítel
leto
rakov
##eně
##now
Photo
76
##ser
vzal
Apple
exp
ivo
##žily
Francouz
zákony
vybavení
odd
##oft
Hradec
strav
Projekt
klidu
##chen
como
dvanáct
##zené
budoucna
also
zastavit
##abri
kapac
záchraná
##řízen
##are
##ickými
Egy
kmen
polovina
##šich
vyví
nejčastěji
##šený
Mist
Brati
##ňky
##teorolog
##hradu
Der
starosti
Prahu
Pale
fyzi
##chat
##icí
naprost
Vojtě
##tách
##ross
otce
##žená
symboli
Vladimi
přichází
prohlíd
zůstane
metod
vyslov
##áky
změna
##lant
víkendu
nepříjem
čemu
##moci
aktivit
záležitost
zahy
nam
vůz
ově
červenci
kvalitu
zábav
Russian
##overnment
Postup
dřív
nohy
##21
Dy
uprchlíků
Zby
##ité
sportu
mzdy
připomí
východě
uzavřel
ca
nemáme
třicet
krajích
SMS
rekonstrukci
tera
obn
Viktor
##názi
solid
hodnotu
ocenění
mob
neus
nárůst
##jů
litera
sl
##anc
Andreje
dočas
Neu
Kone
tari
většině
namí
přijetí
##rorist
Kde
##vers
cizí
dres
získali
##vosti
3D
rozvoje
natolik
podnikání
obyčej
veškeré
##alizaci
útoky
69
nepř
eme
naroz
##AN
řečeno
##nin
onemocnění
rozšíření
rat
##uda
dělají
Zač
plánuje
doty
Antoní
Velmi
##skoslez
dojem
Hrá
jediné
Nejd
dlouhá
dluh
profesor
zprávu
##líž
výzkumu
přemýš
nezisk
##ářů
všude
##aným
twitter
instituce
##řídil
Vysoč
##uju
ohrožení
Mit
##jní
použít
sich
##stánu
patnáct
restaurace
dosa
zařaz
slá
##reag
##hn
tka
##tick
Předseda
kostela
posto
mladých
oslab
chto
##poví
##chom
materiál
##lář
sráž
zloč
##procent
tk
##vere
Hit
napsala
Times
částku
smluv
##gin
bránit
##ovému
setká
hygi
druhým
smut
udělá
##ER
soupeře
vrací
vím
##tvr
dohled
zamě
zprávě
Sem
Fo
pohád
výsledků
kapely
##cal
mail
este
neuvěřitel
Kop
ras
##AM
jelikož
plast
##encia
##rover
žijí
rozu
soudní
měsíčně
##něná
##tější
aku
firmě
informaci
Polsku
malá
##ticky
zločin
##niká
##ňka
1994
Gar
připomněl
dostatečně
odborníků
Kol
pracovních
Premiér
##lina
podívat
poptá
##tika
nale
pomáhá
chytr
detail
##rani
pedagog
oblastí
dav
##chou
##eto
##čného
zabezpe
jdou
nejdůležitější
dílo
skó
kamer
silné
zvířat
Mot
son
komory
##ánek
běžné
vojáci
ilu
komer
##vách
váš
hřiště
siln
severo
report
chyby
inteli
Lidovky
##žoval
dokud
mladé
Tran
##ento
princip
neznám
součást
their
Gaz
abyste
nalé
##tici
1993
titulu
okruhu
##ůst
Rozhodčí
představen
##idel
mikro
Dis
povede
potvrdila
##átoři
vymě
presti
ihned
Sla
drog
##žek
zaznamen
1991
finančních
##ovského
dlouhou
sezonu
##itní
##nka
##kladu
doprava
Moto
Nat
Rath
dané
městech
Sněmovny
Podobně
Řím
kanceláře
domluv
bere
dopředu
doktor
zpráv
trend
##tická
Žid
##něte
popla
##ivních
řídí
správně
ern
Organiz
Sony
naf
##měry
minister
hradu
něhož
ruských
##nské
válka
ukončení
zálož
##zvu
vtip
Topolán
koord
polí
##ází
61
přírodní
čí
##rová
hon
škody
barvy
jet
cont
dcera
##inář
zahrad
smlouva
mnohdy
podaří
Tem
prosp
Radek
##lis
##tle
lok
OK
Un
Americe
Země
lidských
vzdělání
##štím
Exist
nahraz
vlivem
Případ
koli
##ujícího
vyvá
článek
slyšet
hrub
kvality
případy
elektro
majitele
původu
Lucie
doč
produkce
vydat
vze
Čty
justi
deník
specializ
uveden
ulic
debat
dostalo
nemoci
Českých
sank
Národního
špatné
##rovou
konfliktu
začátkem
armád
Josefa
textu
##ider
Nejvíce
##nická
polož
you
Tri
linky
##cházející
Ladislav
##ňoval
filmy
usnes
dostává
respektive
milit
jasn
stres
##ovac
##šeli
##lým
##korej
chvíle
##rový
Prac
##itím
##24
devíti
##kry
Nikdy
##zeb
Play
Měli
##uel
oc
##kcí
esta
týmy
bývalé
stává
900
opráv
##čném
nejsem
##zar
##vale
Stanislav
##rosta
1995
Lev
##hodnot
##fic
Bak
zájmů
się
zdaleka
Miloše
shr
SSD
magistrá
##ivé
##rné
echno
##alisti
##igh
lan
bla
soupeř
ir
ela
fas
##ors
##deo
prodeji
službu
Seve
sec
transpar
okrese
hand
skand
ukázalo
##vedla
zaplatí
přináší
samotné
Mach
zábě
Kim
letoun
Sparta
vhodné
poznat
vyprac
bul
úkol
##pět
##něk
nechci
vyvolá
Nen
##mav
přiroz
##get
##pravy
Ali
##ann
##cku
were
##tebo
přístav
Mé
ivatel
nemys
Pel
letošním
automaticky
dosavadní
matem
##říme
##štěn
všemi
zajištění
nějaká
Rady
techniky
Tat
Col
##čeb
rozví
zal
technické
country
dolar
našli
Republi
pry
Kad
Itálii
republiku
aus
##dem
vodní
ročník
přib
projevu
olympi
##amer
##row
neom
##mn
74
contra
Kali
zasedání
##letě
##lací
sing
##až
nedostatek
dvo
nezv
##burg
šir
term
Vrch
nezapo
but
##voleb
##řelil
Pala
Krom
odpovědnost
inde
##žky
imu
displej
ostrav
##soci
##uru
obránce
vynika
zky
odpovídá
privatiz
Bob
koronavi
nástroj
Býval
##žby
##cin
ruka
##řice
##letu
osobnost
Kot
mysl
čekají
vyplývá
Informa
Změ
##tugal
##eník
okna
##ki
druhu
##istické
tvrt
##nějšího
sílu
##gon
Prof
euroz
populace
zákonem
osobn
paramet
oči
FC
rostli
blízkosti
##zat
Lan
zpří
dostav
##bat
Kni
##vát
Paříži
Clin
štá
studentů
českém
bron
postavy
problemat
Československa
Rek
nazv
dky
programy
poněkud
účasti
##žilo
vyhro
##ývající
cítí
strašně
obo
zastupitelství
rostlin
letou
any
##iti
Jedno
porušení
obyvatelé
služba
nebudu
trvat
##ište
ideolog
inu
osobnosti
plateb
peti
studenti
startu
narodil
učin
Def
Mak
Klause
Pospíš
Jedin
Chce
třiná
klasi
Vých
kariéru
operaci
stíhání
dveře
mistrů
##hoda
nejrůz
Polska
Zaor
##jmem
procen
vybra
pivo
##mas
##řív
##áním
krom
shromáždění
wy
ozn
Facebook
##elt
příjmy
elit
##cer
osvoboz
##rací
Vů
##UDr
Branky
vlastních
World
ministerstvu
pomohl
cer
kanclé
##též
design
##pětí
poháru
podpořit
##dox
vysílání
fázi
úž
Facebooku
Polá
připomín
##ávali
hrají
medaili
rock
plány
spisovatel
##tami
https
Snad
##seň
Chorvat
Sýrie
Ruskem
Nokia
atent
Program
výběru
vypadat
##ózní
ukázal
žebříčku
sankce
obdiv
##řeno
prosadit
##fy
Cílem
zdo
dez
sněmovně
dálnice
Rudolf
objevily
##EC
připravit
Cha
penzi
ple
Jar
##odár
##vce
##niky
##vykl
úseku
Tou
zní
kle
změn
##hali
dobrá
tvrdil
odchod
Londýně
trať
sobot
pivov
##úto
odpověď
##vrh
can
obsahu
poločas
pri
koalici
##ische
juni
vyzval
dráhy
Jas
Bank
Skupina
ichni
Mis
Cla
Afgháni
government
##ow
nezná
používat
##ktoru
označení
##idad
dopoledne
Vítěz
nabíze
zpravidla
Čechů
publika
třiceti
silný
vazby
čest
opo
neexistuje
##štěv
Divá
Lang
jednak
##čená
Janu
ropy
manželství
odehrál
ucha
ideální
##IC
##rono
84
##kající
##řiz
vyhrát
vývoje
Obama
požadavky
těší
##cus
vad
novém
##sia
maximální
provedení
##něno
informovala
humanit
Fa
biskup
týdnu
##sten
over
##ove
##řicetiletý
poskytuje
##ovaném
##sili
mini
chyst
Karlovy
rodičů
##avatele
##byl
dolů
##zdob
sbě
##lují
ponech
##ium
povinnosti
předná
vztahů
##říc
prostory
kontaktu
intelig
##jímat
novináři
komunikaci
současný
dol
##vice
##grace
pacientů
Dokonce
Hned
##pání
lídr
výsledku
kilometr
udržet
Clinton
pokoj
You
politický
##kazy
mco
provinci
víme
Seznam
obyvatele
Mezinárodní
zve
##mů
Vlt
##rexit
telefony
##áhnout
Osob
##vané
Tepli
##als
fra
vzhled
Of
##hly
kapitán
rub
##lalo
Mgr
říkají
víkend
##ition
diskut
motiva
Následně
zřej
STAN
Krem
zmín
Trené
následujících
vteř
pek
jednalo
##bre
škoda
verdi
##taci
vybaven
##ning
##ations
##šiř
popsala
##eze
Vr
71
##sel
kartu
ušet
ústavní
pražského
dítěte
většiny
zr
zvýšit
jedenáct
##oved
##way
prodloužení
poblíž
vyžád
pomůže
zavo
dku
rozhodovat
all
plzeň
sporu
připravuje
Karo
předpokládá
maso
Vždyť
##idente
zejm
zaměstnance
mlé
ono
uhlí
zabránit
doposud
##zou
##poru
pobřeží
obranu
##áku
mim
##kul
Microsoft
##pel
horní
virtu
levic
mnohé
##gor
moz
##tice
obor
nepřed
##ille
soustav
českým
har
Maj
Nevím
tru
##kův
##padlo
##pří
##lilo
nenávist
Pre
##jce
dikt
zařad
kusů
##udi
soudem
silně
°C
organizaci
Ant
vlastním
zaru
Moskva
nákladů
nakup
Šim
vyhov
výu
krajské
extrem
##ňa
vytvoření
Flor
Mari
Velká
City
Bou
dovolenou
pes
##žších
##cest
##lový
politického
chybu
jediná
nabídky
jenže
nejrych
vzít
##mní
ekvap
odvolá
##skup
věnuje
historické
doved
tj
zabývat
schopnosti
##álka
vky
relativně
vytr
##dolí
okup
##ire
vysoce
mise
mnozí
Napo
rodu
mluvil
Opera
politická
##hlédnout
splá
materiálu
pohodl
vyho
potřebné
##ětí
bodu
##icích
Připo
George
184
angaž
Austrá
ruský
##ozof
Film
sdělila
těmi
úspěšně
Em
pracovi
##prac
založil
##cht
diskuse
Bratisla
Kateřina
han
stadionu
celkově
##omo
##tud
Venezue
Jedním
přehled
zakázky
oznámila
karet
##ropu
itel
vyzna
zlepšení
obrá
náku
nat
kandidá
snížit
včera
národního
Uher
soubo
##právní
vit
pádu
daří
kres
loňském
Vesel
Tým
médiích
specif
VV
##ktem
used
Gru
sol
osobních
Jer
produkt
Ivana
lhů
všechna
takovém
monitor
Sovět
kg
zakoup
odstup
vedla
nebudeme
78
bojovní
slad
##úd
gymnázi
##lač
##cházelo
úsmě
řidiči
uvádě
obchodn
##ła
neře
panel
ekla
živnost
##cher
edu
blíží
##ovosti
přední
časopis
přírody
Mob
##ON
britské
##kuji
##řích
jar
##rchest
hní
věřím
uskuteční
##OM
##žít
islami
##prová
správné
fo
třikrát
zahrnuje
pale
informac
turnaj
teror
Autor
kousek
hřbit
##exu
koly
##ED
dvojice
##nis
nechtějí
vytváří
předpoklád
neop
##PS
Pardubice
##rot
GB
jád
astn
semifinále
##premi
příštím
##elop
##60
blízko
##enc
HDP
Eli
předchozích
79
snaha
snažit
jediným
Zuz
Havla
hodině
##pisů
Němci
potřebují
Prvn
bás
křižovat
##zací
bab
dluho
##něného
##isi
bezpečnostních
Olomouci
hudbu
volb
nejhorší
elec
zlod
wir
Tomáše
##nula
130
interpr
stránky
velkého
##žnosti
##rojem
vybran
cestující
Sestavy
IV
##chař
chov
system
překro
##enek
vzác
obsa
89
Samot
##zov
čeští
našel
proud
matur
zopak
sd
odstran
drž
sekun
centimetrů
Středoče
celos
mostu
##nuto
objektu
again
LN
##ún
##ye
divo
zabývá
Michaela
katoli
##ize
party
každá
každo
##nostní
##etro
fale
fu
Sec
přípravy
Bi
1948
značně
školách
##žije
##anem
##tických
##aka
Evropu
koruny
byty
rozhodnut
umožní
Nejen
uvědo
##celon
nemůžeme
##knout
letu
producent
Náv
strategie
čtyřech
##akce
vraž
##léze
media
projed
##pověď
alba
pau
průvod
vysoká
zákonů
představí
87
trium
jemu
##pp
mý
síti
nku
pohla
Rada
Chal
americká
příjmů
vydala
eine
year
##nt
izo
malou
ri
##yw
zept
Blan
paměti
zápasech
rozporu
##udíž
Pit
postaven
Věřím
kavár
Far
Wa
ředitelka
peri
technologií
iPho
pás
jeze
rozsahu
rostou
uspě
##šší
švéd
pobytu
zamí
Původně
noviny
Bed
Jel
##emes
používají
Neb
přede
Samsung
profesionální
včas
##ičku
fungování
Nepo
Mark
Hlas
Góly
doprová
##kladatel
katastrof
musejí
Zákon
Arm
Hum
rozv
oblečení
Vin
rozšiř
##išti
Součá
negat
##inová
potrest
mysli
inclu
Řidič
mírně
lidské
bá
Fiala
sociálně
Chci
budova
##telný
Rakousku
důvěru
recen
pracují
probě
Doprav
věnoval
Frý
##čty
suver
##hodné
Moravskoslez
##átorů
demokraté
podiv
obrovské
stab
##wei
navzdory
Írán
conf
##gos
dotací
##rick
##líz
stanic
##íra
##letr
úžas
Miroslava
Představ
případné
kanad
Tý
reprezentace
důvody
##hrou
ebn
odborn
after
výdaje
církve
hráli
##ůžou
Mni
podmínkách
neschop
Své
nahoru
##EL
plochy
osvět
mohu
trpí
začnou
venku
Jack
##komunika
Dán
přistoup
Parlamentní
lek
volit
##organiz
překáž
Iran
poměr
dies
frek
staly
##wag
království
88
zmínil
hospodářské
podobu
ehr
hodlá
objekt
Libere
potvrzuje
vznika
vzpomíná
http
klidně
##kolik
kariéry
branky
nejbližší
##ores
současného
hlásí
vu
##ict
úřadů
rozpočt
cvičení
##znak
##ula
##počátku
uzná
Turecko
odvez
zaměstnání
hodnotě
poškod
##kono
využívat
netu
bra
výjimkou
Ram
##reet
lékařů
komplika
Budeme
kurz
##ouště
hřišti
dostaly
pane
##říč
nárok
platy
##rea
Součástí
připraven
Krejčí
neprav
krajských
##kus
naps
pamat
##NB
spolupracovat
novinářům
neut
chuť
filmů
##čným
podporovat
týče
surov
econ
##sket
přijdou
RE
Es
Frank
turnaje
##had
##kovice
metru
detek
maďar
zpracování
jednoduše
##esátých
zákro
Fu
častěji
##bá
podporou
air
konzu
Nejprve
univerzitě
ude
problemati
výsledkem
uchaze
přidal
tamní
vyhrála
praxe
krále
Nejlep
pocháze
emp
pohon
formě
brání
přírod
dokumenty
Sku
##kyni
zpochyb
pokračoval
hloub
Chtěl
významné
Cest
podobný
reportá
okamžiku
obslu
fol
że
pobyt
oteví
##lovi
morav
miliónu
napětí
rom
##emii
nařízení
##uf
##ůvě
pic
about
##igar
cyk
palá
##kas
##hlav
##tisk
přispí
##mání
hnout
výhrad
zkrátka
##rově
##ey
put
##vaný
Ministerstva
letní
##čník
trenéra
enou
ily
informační
stromy
vyhodno
Koh
ruky
97
##ando
##ased
podnikatele
vle
migrantů
##ovič
ukázat
Jes
##tura
řekli
##kin
přijmout
bilan
##entem
Para
stovek
##álem
##PP
iniciati
##votní
ovládá
nemohli
Trumpa
83
##ávám
matky
sedí
muzeum
zvaž
lob
německý
úsek
hit
##czy
doda
##nickou
##ápad
příbuz
##něny
zazně
##ings
cla
částky
Cup
instru
archiv
Byli
plno
chal
hodnotí
robce
Hana
##rozí
rizika
vyčí
entre
Zak
map
Nemoc
Johnson
wer
poly
odborníci
udělali
sloužit
povr
úpravy
konat
##dro
##vedli
slune
##počtu
popula
Otáz
roman
muzik
aktivně
knihu
##ario
platfor
deci
takzvané
CN
nejsil
Druhý
pracovníků
jídlo
hlavě
herečka
wi
inspekce
##irurg
úspěchu
notebo
Group
extrali
Dodal
##ardu
Blo
Ri
Há
##OB
dovoz
81
online
žádosti
Gener
Ang
očekávat
dovolit
událostí
míří
##dách
robo
varuje
skončilo
úspor
okolností
přípravě
##cka
Volks
##liště
Řed
zkon
konstrukce
Víd
hodnota
bombard
Bos
přání
čtvrtletí
kaz
složení
nepřij
dřívější
Evropského
symp
vstříc
##livý
souvisí
##érů
President
podal
hrách
zůstala
líst
Fischer
Barcelon
Šum
redakce
nacion
knize
systémy
Jindřich
reformy
International
kniha
pohř
předchů
přímé
##com
vrh
studiu
jimi
DVD
state
##šilo
aplikaci
##stoupili
##tickou
vymys
převz
takovým
dvojnásob
vymez
Zav
spojené
##kují
poplatky
##jov
divadle
uklid
potě
kombin
ekonomika
dispon
Marké
měnit
Afghánistánu
dokáž
Polsko
##rátit
##čkem
debu
kontin
předvá
risk
dodat
zjednodu
##pek
vládou
Aktuálně
kontrover
Nova
poděk
zadní
občanům
##itka
orgány
bronz
nejni
Il
tich
poslu
Svobod
branku
##nen
Up
Ital
##hý
žil
podepsal
vali
zka
Jaroslava
rozsáh
látky
##roid
##lion
denn
patnácti
##šťast
sví
umístění
##ality
krve
reagovat
brát
##řebu
nesk
Někdy
soukromé
##ries
mandát
důkazy
##cové
##tiku
##artpho
zjistil
##ovně
Old
komo
vesnici
##díl
pozdější
##tického
předbě
nedošlo
běžně
zvláště
navrhl
##leji
##ker
Isra
Davida
povedlo
Russland
opravy
revoluce
písně
Jihomorav
tradičně
Vyu
##mene
Důležit
Gi
kauzy
metra
kompet
hodinách
aktuálně
##orth
nejlepším
##rových
Jaké
znamenat
##lera
voliči
dělal
církev
Gott
Výsledky
sítích
Lin
##iteln
lah
doplnila
fanta
Rov
Moravy
marketing
##urd
staví
přestáv
oběma
era
##huje
NE
problému
Sun
##řák
prince
sleduje
velikost
vysoký
##ženého
##és
Stu
zvlášť
Komi
Třetí
bonus
##átory
sazby
alkohol
neznamená
magistrátu
imigran
odpoč
Fol
Fre
nále
Jane
cap
opoziční
údolí
moderátor
Američané
Black
přístroj
vyřešit
Úste
Juli
nehodě
86
Část
schval
hypoté
přil
přiv
kontex
Moravě
nk
totali
discip
hejtmana
olomou
##znala
vysokých
##eném
přestěh
reprezentant
Kun
##nuli
##lích
Hen
otázkou
##enda
vlo
ska
ady
ul
##advacetiletý
##ějších
##mec
policisty
válku
##graci
termí
Dalším
pořádně
doch
zázemí
pachatel
##cuje
James
příštích
hudebn
Kas
stavět
výstavy
Draho
palu
Vojtěch
podruhé
všim
čínské
autora
stanovisko
branká
vytvořil
stará
##stou
Wo
##tec
mr
předvoleb
lodě
hard
fanoušci
neda
uji
čtvrté
nedale
other
expres
##pas
##din
obráz
Kaz
##pem
##AS
nejlepších
usnesení
míč
silni
##klon
##žích
##loval
kriz
samos
záslu
prozradil
##ital
sněhu
rozděl
nemocnic
nestalo
Wh
poradce
zmiň
výšce
people
výstup
pohybovat
##rád
získáte
rodi
##čeny
96
omy
posledního
muselo
nechali
meck
##ograf
šampionátu
##mace
##nová
obrovský
##IP
KL
Slovenska
tudíž
zoo
domácím
Tř
##ánské
lékaře
Minister
Mnoho
zrych
přizpůsob
##mie
potíže
uch
Max
##isí
lyža
##áků
opustit
hern
magaz
##esa
hledá
teoreti
Pospíšil
domova
Příbra
dokumentu
##nulo
kníže
řemes
spat
cigar
seh
formula
Agro
výc
vyšetření
nezá
konflikt
##jitel
##deň
bak
##ges
fanoušků
##ísk
##klop
##ějším
Kolik
Histor
populární
Karlovar
odpůr
hlasovat
policejn
biolog
##onů
černo
dají
##rické
##torů
důvěry
osobností
ká
nejvy
##prv
Liby
dosti
anony
##cording
hudba
##ght
##rid
dosp
stránce
Leg
odvět
sledky
hně
čtyřmi
Voda
německého
Předpo
zřejmé
letadlo
kW
diag
týmem
chyba
##šování
divadel
##iči
týdnech
dur
##lot
ztráty
fue
dou
Evropskou
Speci
fondů
jel
##nar
Erdo
manželka
dka
fal
##taj
existují
pražských
##ídat
následky
netr
##adatel
odol
pravomoc
##čovat
Anna
patřil
jo
##wor
nepřátel
##schen
nerv
investic
1000
zástupců
##menu
místnosti
sex
Klu
proslu
Viet
lodí
##vateli
Jakmile
Hospod
##landu
vé
kolegové
neděl
problémem
##PG
sobre
nada
só
Ameriky
##ruž
bezprostřed
##wan
řetěz
restitu
Mluvčí
##OL
olympijských
skončení
stejném
šlech
nastup
piva
nechala
císař
kul
ulicích
začátek
Jir
Chovan
Diváci
poškození
Čím
Vedení
##mus
##FA
##yor
říkám
fac
kříž
Jist
pravd
středově
Nabí
Ener
epid
duch
##Listy
Asoci
zavra
##vence
##schop
moto
volených
poza
##itelný
důvodem
##clear
zamít
duchu
svatého
indi
Vor
čtvere
německých
infek
objemu
Výstav
##isto
kapela
##iter
alo
##štině
koupel
Rumun
rozhodování
Lenka
firmou
##áhne
koní
Mur
Zajímá
nepou
ostatně
úst
celek
odpověděl
##silí
zahrady
##padl
boku
počítat
##rovat
postavil
varianta
##átka
Což
návštěvníci
letadel
nepochyb
ekonomiku
expert
Lip
##anční
sektoru
Narod
añ
iz
##ectví
třetiny
začínají
vánoční
##iller
uprostřed
##brid
kancelář
hro
Hradci
vrcho
vyšlo
##vatelé
hory
energii
necelých
objed
skry
Důvodem
##kalo
dohoda
ojed
Černo
Post
plod
zjišť
##zdě
##ván
talent
##hol
kin
odpovědět
říkat
posléze
Mila
edsed
klasick
funkcí
využívají
asu
přelomu
##MA
urych
Znoj
##enst
klí
Rád
nutn
##ture
odborné
##lumb
slibuje
Slez
šla
labora
přirozen
Chod
byznys
##ujte
##TV
##redit
Slavia
snažili
velvyslan
trhy
##oba
Novin
tisíci
##mrtí
##štej
kilogram
##enství
komed
záznam
záleží
jmenuje
##práv
šíření
podél
bro
##ound
dec
Novák
ustanov
ošet
Severo
Bat
prozat
státem
dostateč
zouf
inžený
##noucí
##ráží
Návrh
vývoji
Vašich
Publi
Akad
nápo
liší
vyč
kompro
##isko
maxi
oběti
komentovat
##tku
dokázali
místosta
odhod
instal
##ďte
dosáhl
pt
##čnost
autem
##udoval
##ug
##kovan
Člen
cestov
one
Las
##šená
hospodářství
seznám
řeč
##ádě
lidu
zámek
ovlivnit
pne
asociace
##stral
ptejte
##šena
jest
ambas
SA
##med
místem
sexuální
rozhlasu
Podívejte
##dám
tlačí
##žad
tvaru
datab
údrž
##ls
vno
Vala
##nalo
utek
##OZ
Ceny
##kaly
klasické
dneska
francouzské
Ptejte
iceti
jasno
obdržel
poznam
##mentu
##líbí
Té
považuji
produkty
pište
against
rozhodn
loka
podniky
pokračování
povrchu
Kal
rodinou
sek
Tomi
zneuží
uvedli
známá
Genera
Grand
pokutu
Léka
Deut
nasazení
zaned
osoba
Ly
znamenalo
Gabri
Růž
dovolené
##šová
kot
jede
sekund
otevření
##ňující
Om
Často
mezinárodních
Františka
##oevrop
##ffen
partnery
Děti
##šná
provin
objedná
kandidátů
dobou
##tin
angličt
nefung
News
##řky
Ivo
orchest
##ňte
externi
celost
Argent
##rí
přístupu
##izace
dotaci
pražském
koupil
benz
skvěle
daňové
variant
hospodaření
zaúto
##rky
vidím
ivotn
prohlí
představitelé
ztr
vyprávě
asistent
##řík
##ovci
zahrá
Boj
zkrá
smartpho
dobrod
##avil
pódi
Nel
nemělo
oživ
##TS
bavit
otevřel
desky
##známější
ukrad
##emo
domácích
##urt
mci
##leva
##wood
edseda
chla
lidská
Ukra
asp
Ředitel
oku
pozmě
Ren
vlastního
esku
zisku
##eri
##enské
Plat
##kyní
##ženy
##jd
##vár
##can
Šu
diskusi
ČNB
setr
Zku
vědom
zkušeností
homos
110
Ková
rezerva
bot
Hlavním
přípravu
hlava
Ci
Mobile
Mají
věděl
##inger
##pora
řídit
##stein
##arů
dceru
občanské
azyl
zdůvod
zvíře
nahradit
##prezident
98
vůdce
##šily
##dera
##opád
##elem
bolesti
##ange
##šková
tenis
fre
##jedou
homosexu
kně
##áb
elektřiny
odlo
Angeles
raj
déle
jakých
##éně
Such
rozvod
pozemky
poslankyně
studium
bolest
snahu
bojí
ParlamentníListy
Sněmovně
dcery
definitivně
evropsk
inspir
Situace
studenty
jazyk
##vení
##enz
natáčení
záležitosti
basket
zbroj
zrušit
Arab
souboj
Poprvé
BM
Art
prodat
vzniklo
##novější
naplán
recep
##éma
horách
##šných
Agent
premiérem
vlasti
návštěvy
Zemanovi
přílohy
Internet
##sová
Oprav
takřka
cam
internetov
tlaku
partnera
jistotu
podobných
185
vlak
nejvýznam
úlo
kráde
odbo
fotografií
##pů
spoluhrá
patrně
Registrujte
kruh
pouhých
zastupitelstva
systémem
dávat
Pos
##tó
cestujících
výstavbu
more
stez
Ker
Py
čtvrtfinále
jedine
diploma
##jek
Arch
dynami
zjištění
sf
krátké
hrdin
generál
vydavatel
prezidentské
masa
ploch
##rozápad
##tain
nasad
zvyšuje
nemohla
slep
stíha
chvil
zimě
vidění
omluv
kob
náhodou
zbran
politick
těmto
##hové
oddě
Tex
##mel
evaku
jakého
Hašek
Jihoče
zimní
Čap
prezidentovi
obran
kombinaci
Europ
##advacet
##mente
federace
##kum
horo
##stri
naka
Stále
obrat
Tuto
momentálně
haz
politolog
pryč
zablo
záb
##poslan
##liny
stromů
vyjádřit
starosty
krajského
nevý
Unie
volba
kře
areál
požáru
existence
##dající
Teprve
ochraně
noční
demokratické
Dev
založení
Bulhar
nevyu
esv
vrcholu
##endá
náskok
fanoušky
tragé
galerie
##ovek
přestav
##telně
Ukrajina
pevn
rr
účtu
potraviny
úmrtí
##ovsk
bli
převod
trošku
##ican
průmys
##ití
CS
školní
stála
poškozen
kated
britský
komentoval
spory
Koz
##lený
rostoucí
##razu
Ministry
##čování
stand
Zvlá
spolupracovní
tradice
misi
sepa
francouzský
##líte
pochval
tok
automob
if
Mladá
iny
populi
brankář
unikátní
podpoře
Miss
vlastnictví
##obier
ostatními
útoků
jinými
##tovost
1gr
##ezí
zakladatel
OKD
Tre
payw
meteorolog
Volkswag
důležitý
scéně
##hovat
paywall
140
odejít
dých
představenstva
##čelem
Liberci
uprchlíky
Lav
stol
návštěvě
Jestliže
ráz
nějakým
softwar
ukazují
tradi
investiční
podzem
ztrát
##ženým
mládež
tmav
dvanácti
institucí
European
fó
průkaz
kvó
podílel
##hry
Ron
nabídnout
správa
experiment
Agrofer
instala
nejvyš
pap
nedos
nejenom
Zad
vyk
pojišťovny
Rusové
auch
##box
Del
zákonodár
Syria
##ovny
edpo
hrob
tsk
středních
kád
minulém
Urb
jiní
sáz
doporučení
naštěstí
nucen
státě
švýcar
podat
navštěv
nešlo
jízdy
stříbr
Rober
viděli
vysvětlit
##jíždí
rychleji
##bod
výrobky
##šího
skří
trasy
světových
typy
neboli
nádher
okraji
tras
žilo
##likvid
inscena
Olymp
Eric
desetiletí
desát
premié
##rocent
očekávání
letecké
zásahu
důležitá
##šim
##lověk
pun
##padla
stsk
Sprá
##rka
Vznik
povz
Vstup
there
městských
vyboj
##západ
aero
místy
##die
scéná
konkurenci
Belg
kali
Im
těles
##kne
Paul
zážit
telekomunika
##hrani
Sky
als
všeobec
zadlu
vysvětlení
volič
optimi
Hodno
korupce
kytar
poplatek
veletr
náročné
vzniká
zvířata
týkající
##kládají
One
Egyp
Invest
minutu
##elů
##opera
Komuni
žádném
dějin
Mont
Host
Dvořák
kaj
vstoupil
##jně
##deb
Muze
nabídne
##KA
zev
arche
vina
známo
investovat
mld
##fo
střetu
výhradně
legit
##kovali
Exper
poto
nebezpečné
návštěvníky
Univerzity
##šlení
dodavatel
vp
##arda
analytik
nepotřeb
testy
snaze
samotn
efekt
##ářské
koronaviru
mimořádně
oblé
skončit
menu
##onem
Babišovi
Soko
primár
##atý
kas
Korea
břehu
Plzně
značné
přijal
##vav
Původní
čelí
vyřaz
linku
##ical
Dá
inspira
blá
tole
nešťast
veter
##šíme
tajné
posílení
snímek
odsu
##telná
gólů
##něnou
kart
Asad
souboru
obl
naleznete
font
Oproti
fakulty
požár
kolega
##usu
odmítla
poste
obchody
kn
interpret
ohlá
znát
zaznamená
##ičtí
##26
nízké
Jaromír
žádostí
ceně
Člověk
zbraň
letect
nemovitosti
##nují
mód
černé
vyhod
tenden
##komo
tisku
##cep
prvo
##šenou
Přem
##tack
##adla
mladý
klientů
Právo
##fal
pilo
závody
těle
brus
Mel
##BS
paradox
novinky
spal
budově
ští
poprav
barok
naru
baví
##torem
znásil
##ford
měsíci
vrátila
Rakouska
proku
velkém
dětství
zásadně
turistů
##stům
třídě
podep
úsilí
Máte
##ön
hold
výrobě
rozsudku
mozku
facebo
zdob
míře
##jan
##líme
soudy
Králov
Zajímav
tradici
zanik
Twitteru
##tová
##lámu
trestního
Novotný
filozof
diváci
Nation
okruh
##rii
liv
přijímá
svědčí
Ekon
kritéri
stolu
##KO
tráv
přesil
přezdí
vyčer
Seg
tito
##tig
omezen
duše
transport
psychiat
podniků
Port
Bol
návštěvníků
jejímž
##skytují
##razilo
účastníků
tvář
develop
Zda
scény
Nejde
maximum
##ya
každoročně
nikomu
referendum
##štiny
sklon
výkony
idnes
Ostravy
současných
držet
Stačí
vyšla
změnil
krev
Pob
##25
členských
změní
sboru
navig
##kevní
##vědomí
ohrom
kriti
##bet
##měsí
##urity
vědí
bezplat
##ína
vek
korupci
ovoce
##90
zachrá
##ken
Afriky
Venezuela
##esto
fen
##ago
čo
##anda
##ID
sociálního
vlh
vedlejší
pozná
##bién
##ovanými
doru
Mexi
Starost
gig
zadá
##izer
celeb
čtení
Washingtonu
Ká
Fri
##žka
pramen
##alé
##cený
národa
vnu
nejist
Základní
##raci
říše
CC
dívky
situací
koná
##zování
Pil
Budou
##skop
pozastav
kalendá
radnici
skupinou
##ovacího
můžu
divize
oval
##řeš
##ns
voln
vlivu
požádal
moři
krajů
Cap
chirurg
odev
##itelná
poskytnout
dnout
time
Merkelová
elektrárny
##čeho
##žitek
Bývalý
##CO
opravd
Sled
##vik
##ube
musely
komunisté
tréninku
souvise
##cos
hů
cenou
##wy
Krit
akcie
Jí
stali
opustil
plus
170
pomáhat
Obam
##roval
Portugal
Rec
divadelní
PP
manželkou
##hip
líbí
voliče
Bohemi
tramvaj
##sné
##erov
kancel
nejsp
ukáže
Bon
ztratil
řez
##ween
Evropsk
odbě
ata
sídlí
##BA
akcion
odstart
Antonín
##nese
uzavření
pneum
optim
vypr
zaví
nazývá
##žný
Nechci
zvýšil
migrační
Zájem
Jon
pochopitelně
##SM
infrastruktury
Jednot
##ivě
čerst
kontrolou
konkr
##procentní
chran
hrála
najdou
Sand
globální
státním
skóre
příspěv
turné
vědci
vážné
zastá
listopad
vku
Poslan
##tré
##bl
Wolf
##ło
žán
vědomí
tlakem
Cit
kompletní
krou
##vir
plnou
##inací
nedokáz
parkovi
hygien
evident
##IM
Mr
zbytečně
##mito
způsobil
##St
Lond
metropole
Zo
##mid
jaderné
tot
vlastnosti
převzal
někomu
částka
Rakousko
Kav
Moskvě
##ival
gran
mel
Zaorálek
##ZP
ope
##ovést
##štěné
Ostatně
Čtyři
uzavřen
ije
##char
sebevraž
nesm
Kaž
Krát
##är
sklep
odstav
krokem
vodě
hvězdy
kariéře
navýšení
pořadatel
Cat
připraveni
Hua
filmov
krajský
##icemi
řekne
kongres
literá
diváky
IT
##óna
##enční
vyplat
partnerem
##tiky
politicky
##obierno
garan
zlikvid
Kolem
spraved
##adlo
naplno
Augu
Řecko
stech
meziročně
lesa
##leno
doufám
93
Veli
##tání
perfek
Fakul
hledání
zpěvačka
demonstrace
##agu
##BI
##ded
smrtí
vyšel
##rátor
objevuje
vlasy
ou
baterie
úder
##UT
úvodu
zapoj
Lis
získání
papež
Asociace
dohodě
##iera
Bil
presidente
##cvič
světlo
léky
nelíbí
rezign
zakázek
Sig
uc
podstatně
emb
##ines
kří
Čechy
tabulky
##šela
skvělé
Feder
##lip
##test
klienty
Dienst
##dos
píseň
Das
##kladů
ředitelem
CZ
##zační
integrov
tvrdě
Janou
proudu
##weet
zastavil
objevit
archeolog
seriál
Radio
##bírá
kluci
##mitu
stoprocent
plný
šan
beton
##desáti
starých
##stají
Franci
rychlé
novo
výhru
King
týmů
vypro
neřek
vlaky
##olven
troji
nakladatel
AM
##ínek
##cených
zachování
provozuje
materiály
sjezdu
půdy
zdan
##leš
tabu
nemovitostí
účelem
toku
Hamáček
simu
alb
ponděl
zpěvák
Univers
Moc
##áš
chyt
05
medaile
složité
##bytek
##cejí
gru
vyslech
##vaná
##enn
Doufám
kapel
mrtvých
král
tématu
Vladimir
Atlan
vor
Druhá
Sn
Tereza
uživatelů
350
lky
Kurd
##orní
využit
##tivních
pracovníci
dopady
##azz
prověř
strávil
orgánů
##gg
##slov
##pky
bes
##nky
určitou
celosvět
evropského
generálního
##počet
nejsme
atmosféru
ostrově
nimiž
apo
##elle
absurd
chat
military
##aném
parlamentní
varoval
pokusu
revoluci
##cess
Gala
Oni
1939
##mět
##škol
##rika
připojení
dávají
celkov
##lum
obyvatelstva
Kup
##dární
Šlo
##udy
překvapení
IN
##iva
ident
blog
##tet
vojáky
časopisu
porovnání
##čoval
##17
vyhráli
Občan
Palest
obav
systémů
ukrajinské
pest
Jenom
šat
##ovská
pozemků
Phili
vala
##úspě
skladby
Všechno
##vede
explo
trase
doplňuje
##40
finančně
dosahuje
dětské
##enku
##míru
1988
rána
##tur
dezin
esti
zákazníků
napříč
##EM
Hlavně
##HO
islámu
autorem
##iner
vyplá
ledě
Dub
vzniknout
Budějovice
##zav
silnější
domnívá
Moder
členství
Hodně
volné
otevřené
osobu
zbyteč
##tak
trestn
možno
edchoz
##štěm
pades
hub
obvodu
funkční
##ix
dajn
##níček
ima
Pirát
hekt
vedlo
ojedině
dnešního
těšit
chovat
##žto
Erdogan
nádr
##ivý
Anton
##opo
itost
##uba
##ictví
##inov
##enka
##cházela
vyrábí
považují
arci
kroku
představují
Cal
krásné
##ČR
historických
Bárta
oble
Bre
představil
stopy
kritiky
Američan
výpad
nepřek
narození
##nci
##mála
trvale
##hrade
Velkou
váz
##rin
Tel
##livá
pravomoci
věž
##endy
vyhl
provádě
vyvr
opon
potvrdit
vyhlášení
tref
Nejv
##stka
dálnici
##skov
odvod
volně
ijde
nar
gar
půdě
díly
chr
bytě
Michala
##nia
##zena
studií
##tim
tváří
##sledek
SL
jakékoliv
civil
##šovat
nesouhlasí
Strop
vítr
über
potenciál
Provoz
UN
angažmá
útě
trestné
sval
auton
záchranné
vévod
MM
naději
nacházejí
hel
##stick
##nský
důchodu
chránit
rozhodčí
##nuté
##áte
Pořád
vzdálen
objevují
novely
podně
prohlásila
zdravotn
stolet
laborato
ústřed
rezig
menších
navrhuje
zóny
Matěj
radi
nějakého
dozví
místního
##omy
listy
vína
##ovává
restauraci
úva
spojit
budovu
bil
Ein
snímku
AT
devat
Gam
domácího
Brexit
zub
osmdesát
zaháj
Blíz
bílé
werden
Sva
##islava
erven
odpovědi
akcií
zprostřed
manže
Náhrad
sezon
dluhy
##čemu
inva
upozornila
Strana
pravé
plnění
kabel
usp
into
ukázala
##čkami
Krymu
##dík
##mách
mluvčího
respond
Aleš
##oři
##šených
iteln
vraždy
##skytu
palestin
světového
medicí
##stický
##hile
##vrd
pota
přírodě
Domá
pond
niz
##ajn
Informace
##emen
krat
pronik
ipom
nejstarší
bed
označuje
Troj
vydělá
##atiky
Jez
##ardi
zabav
Chá
##zl
počítače
France
seni
premiéru
různými
ryt
##omě
zlato
Turecka
domácnosti
Lze
mohut
##chal
kvalitn
otázce
ostrova
závodě
úspěšné
Dienstb
##aga
původního
výstavby
výroky
přesvědčit
nabízejí
seniory
some
mó
současná
ostře
##štích
některá
libere
investor
Putina
Sb
zlom
inkas
expozice
letišti
Nachází
01
minulé
bohu
##žád
##alda
klášter
box
Libor
incident
##US
standardní
Žlu
Hnutí
Pozor
##mentem
argumenty
výroba
preven
Dvořá
1980
debut
radě
zvě
sjedno
ikon
##lam
rozlou
Hab
nizozem
slovenské
Vojen
dlouhý
##kované
1938
##ave
1969
nynější
Kel
rychl
láz
témata
Ačkoliv
Domin
##niny
stávají
vznikne
183
##kovém
Huawei
lůž
omezit
sie
komisi
Těž
pověst
##odr
mj
austral
samy
hrozně
##hách
existenci
uzavřena
Danie
prud
##II
policejního
tax
##idy
přiví
myslet
výrobků
vizu
Byly
##mark
koordin
##rkevní
Nečase
08
Zej
kona
záru
Jour
##erci
##tosti
krab
Land
vybral
Profes
Milos
Mistrovství
záko
##lia
vyr
kontextu
Moskvy
volebního
Dou
##GB
Běl
tituly
závodů
##denní
čtvrti
Demokra
výhled
utká
Potom
##chest
nevyh
pozadí
zbavit
čela
Set
kabinetu
vypráví
##heim
sledn
nabídka
Dole
##tef
hosté
##rný
žádá
podobného
##sey
čistě
nespokojen
strategii
Zuzana
Rozhodně
kandidáta
komfor
stížnost
vzduch
##ruje
manag
Bag
##čová
výšky
klady
agentu
komisa
O2
ulož
##šejí
Svě
##wie
##skupení
##opádně
snímky
daňových
liga
Telefon
přinesl
klo
bili
detaily
Gal
hv
kulturu
usnad
chybět
##leny
##loub
terénu
uprchli
neomez
##chaj
Děkuji
těmito
##AF
dostávají
zvuk
##ranž
Nově
Pon
těžce
ministrů
jiném
agentur
junior
##acion
##anti
majitelé
uzavírá
Lat
##roční
malí
měření
světla
##inců
vul
nejnovější
socha
##ralo
prodávat
##nského
##rud
jmenován
Dosud
mezitím
skat
dostanete
vypořád
Sdru
hosty
##aro
varianty
nezab
samé
schválila
teorie
zůstávají
doplň
strá
##hran
Ruské
gólman
církevní
##reat
##cedes
militar
advokát
připad
##jád
památky
otevřít
##70
návštěv
politickým
novinářů
dir
levn
necht
látek
eleg
##IV
ez
rý
Intel
##šev
sledování
postupovat
texty
defen
sklen
kampani
meg
##rám
severozápad
Takové
Břez
ztrácí
##ember
konzo
zpomal
dokončení
přinese
bel
sestra
##over
hoke
vd
brig
##ści
denní
Musím
zveřejnil
Cam
##board
koncertu
brut
Koc
vyžaduje
osvěd
čtrnáct
russ
fan
americkou
dřeva
kompen
obchodních
poprv
##iness
mapy
významných
exklu
podnikatelů
přijat
94
##TC
resortu
Vod
Spole
##ffe
obžaloby
Zn
##želo
mládeže
incidentu
určen
##bek
bývají
používání
##orn
Brazí
motoru
penal
clav
nejznámější
##šed
ruská
Zdá
obří
Vlasti
vojenských
senát
předsedu
Elekt
##kazují
Jean
92
##sbur
##áže
naděje
##ness
zastavení
##tica
##typ
dopadne
přínos
Harry
terrorist
cal
třetího
##lety
sená
šetření
Sho
sponzor
růž
nákupu
Fra
sobem
##káři
cons
nejp
starý
široké
Jaký
odůvod
trvalo
komunistů
bas
##adou
eura
dokonale
volebním
##ella
nuclear
figur
konstatuje
Především
funkcion
##sión
vznikly
Tot
software
záme
Ludví
zavaz
##dejte
##něl
trestného
Vis
úrovně
##zela
zdravotních
##cional
likvidaci
anglicky
veřejno
metropoli
ný
Řada
rodinné
Kab
##jn
Procház
poznám
fáze
duelu
bojuje
zrc
##sport
dědictví
Kongres
pacienty
jasný
Alb
úvodní
mali
##hm
odstranit
##cech
trů
rychlostí
##isíce
##lených
IP
Trenér
okraj
vozidlo
bývalá
smy
neumí
průběh
očekáv
volný
národních
měste
##nuta
mezin
nezají
##nostech
prochází
padesáti
sklo
Dag
States
psal
scénář
tarif
akadem
imunit
vinu
##lier
Pam
uví
programů
materiálů
dopravních
##nojmen
vysvětlila
netrad
britského
terorismu
vlna
##alisté
##livu
##yd
palub
##žbě
Návště
Majitel
trefil
klen
lil
ign
##šer
icet
městského
##čané
##ající
McC
klíčové
Chic
rozdělení
objevili
kritizoval
Mobil
##gramu
akademie
Moni
Petro
zet
jihozápad
mistr
##vej
írán
##líček
konzervativní
vyhnout
Sr
tříd
Gobierno
nastavení
společenství
Žena
between
91
cvi
adrese
motocy
Zab
cestovní
novináře
šli
odpovědnosti
Senát
repres
ster
kamery
nezb
poslucha
Prost
Paci
náboženství
kritiku
Tes
ipojen
##brž
zma
návštěvu
German
Liv
Markéta
pokusil
motory
##telnou
fe
písní
kontrole
obe
Ps
##gue
##éhož
přijel
líd
kapacity
nástroje
půlno
Alena
soupeři
##namu
věděli
studoval
generaci
přítomnost
zaznamenal
Lar
srb
vzbud
CE
Turecku
demokratů
Rou
odškod
vojenskou
fotografii
Ofici
Ústavní
dodávky
under
dávky
založena
hasi
Nord
triumf
til
##střel
známých
reprodu
Zahrad
schopna
délce
zanech
soukromí
##vyklé
Velk
##měl
Objev
rakety
Zam
realizaci
prozatím
poka
kluby
automobilů
vzdálenosti
##čující
nemaj
legitim
Musí
Uvid
##ieg
##váte
kvalita
##vas
ol
vystří
SS
Želez
hvězda
dalšímu
two
ujist
Macron
##ládní
soukromých
Horní
Kře
##óz
sídlo
vdě
##ůh
odposle
operační
##acích
Sing
oběť
znamn
Tal
laj
mých
nástupu
##hon
Austra
můžou
neměly
jesky
Tit
##chvat
Moje
Hej
zachránit
nýbrž
##odí
bari
důklad
metody
stejnojmen
##kly
Veřej
tématem
##its
nikde
zamil
##mutov
03
##els
Dvě
Kostel
Vary
##IL
nezas
horiz
##mali
sleduj
##kladem
nezvlád
sila
finance
objekty
Bas
##pisu
Led
##ránu
Vůbec
ženou
##itý
elektrom
centrem
dnou
certi
##cra
Řekl
ala
##ORE
formy
cas
Měla
stálo
Lib
každoden
nepoved
kys
##kom
jev
CH
Bet
německá
pečlivě
poslat
produkci
Velký
SD
Institu
vyrovnan
##zvlá
hlasovali
Současně
zpravodajství
řeči
##lejí
##mbur
územní
##venci
##sá
kilometru
podrobnosti
neudě
připadá
zapot
koncerty
##oder
Ul
But
provincii
Vondrá
##lass
dresu
our
přepočtu
odstranění
Sar
Rock
India
policista
datum
oken
Přek
večera
spočívá
##minut
správu
dokumentů
Jihlava
##acek
##riz
##atelné
neplatí
povstal
zelených
škr
levnější
##nova
Zástup
##stie
Tan
krajiny
spolku
rozpor
##turu
nedůvě
Takto
stavbě
porost
##enými
přiznává
##čkách
architekton
drobné
procento
##lily
panem
digitální
vyjednávání
zlepšit
prošel
Africe
intenzivní
slíbil
správě
vrtul
Fot
nka
ztrátu
pochod
##ath
hád
trop
sedmdesát
našla
skladatel
##kční
termínu
úředníci
vystoupil
##pěli
##inter
hrabě
Konkré
zdě
spořitel
Tomu
skutečné
##opis
třináct
##př
obez
příběhu
blu
##eten
Celsia
KLDR
nezbytné
expor
rozhodující
ment
también
rie
Vit
samotný
zabezpečení
profil
vynikající
Spí
Oh
právník
celku
##rio
##řicha
záv
Helena
separati
nostn
blízké
přistěh
1986
##tán
##ungen
Kalouska
Čas
está
##inen
Komise
věk
center
USD
##erová
zadrž
##cas
narazil
vlaku
hovořil
##šnou
synem
zmínka
europoslan
poni
##číst
pobí
ošetř
usmí
výzvy
tluje
historicky
Cen
herci
fenom
tank
##pěla
olej
irá
Nejlepší
##fest
povst
##part
přehlíd
nímž
Tich
otevřeně
snahy
kvalifikace
nekone
Kři
##utná
Wi
##tag
Bře
městu
vybudovat
svojí
##ction
now
back
Můj
##oka
radio
##hající
nepochop
ostatním
demokrat
##chaft
Ček
taneční
##CE
představitel
##idi
přej
tenhle
##laly
University
Saúd
stříd
Ast
turnaji
individuální
##hráli
testu
##tář
##ät
obrovskou
bram
páté
Čtvr
jídla
zpočátku
vyznamená
důsledky
věřit
zato
rozvoji
##antn
srde
turisty
04
hmo
objas
elo
##kojení
předsedkyně
##tis
06
free
zaměstnavatel
zareag
změnila
zakaz
##čnosti
porazil
uva
jakékoli
kosmi
obrazu
##ña
neplat
Svou
Úřadu
##vkou
jistý
Čtěte
vaší
Hlavn
úmysl
riz
Boris
principu
##voří
tribu
pomáhají
přeh
##sea
klubů
zážitek
výhře
Náhradníci
nabídl
bratra
##hraniční
podpoří
otro
Volkswagen
Šest
potřebujeme
dit
světovou
summitu
srovná
Peníze
panství
srovna
špatný
Dolní
pohár
hran
propuštění
##áváme
kauza
##ador
experti
gegen
nestačí
##čov
svědomí
##ča
hli
##činy
Zdra
silnou
choro
##mují
tiskov
rozhoduje
Prý
hrou
stavebn
Video
slunce
naprav
##ština
lobb
##OH
plnit
eurozóny
upřím
setkal
##haly
zvolení
displeje
Černý
jednotka
##naci
představitelů
##bran
mistrov
Stejn
perspek
National
sud
vylo
##trol
naruš
##armo
##ivou
tís
##rog
úspěšný
##inské
##lobal
schválení
myšlenky
vydává
Celá
Ús
Narodil
zrušil
Tlu
EET
galerii
Vset
deska
samotného
tuhle
elektronické
proběhla
proslav
major
jídel
výdajů
rychlejší
vydali
Vzpo
významně
zvolit
##lenou
dijo
ibli
bub
##zeno
##nictva
jez
##ovacím
1984
tvorbu
bankovní
střede
najdeme
##ije
vypadalo
Kir
koně
větším
zahradě
kontrolovat
##ilem
zasa
pronásled
Nejsem
pozoru
autobusy
záchranáři
klik
dluhu
skrze
obvi
brn
Zdeňka
##štěna
ignor
zvýší
Ovčá
MORE
Ačkoli
tvorby
Senátor
Thomas
##stitut
jara
faš
aj
ská
kvalifikaci
větších
nasaz
##ión
povinností
znepo
charakterist
nahr
otá
konzul
nil
příjmu
Hud
rozhodlo
Varš
vracet
##celku
##ejtman
##oj
##ládek
##tám
obchodů
Typ
##ňák
##lehl
cor
spojuje
redaktor
psát
##AP
haj
Ford
##inský
úc
zákazníky
Part
stranách
Japonsku
READ
inzer
##nální
##ilí
komunistické
edstaven
síla
někam
##unda
dolní
##leba
reprezentaci
Indie
původních
##lesku
nezmě
cokoliv
malého
CNN
vka
spolupr
uvedlo
rud
zajímá
slaví
##baj
stupeň
##key
main
štábu
##bory
týkají
teplota
ré
geneti
trav
bloku
##árek
##field
nerozhod
stu
širší
##ego
škodu
stejného
##anech
what
mužstvo
debaty
starších
07
Sociální
postupn
Průměr
smlouvě
##hování
told
mobili
pardub
##foli
komunál
odhaduje
ova
pozů
připravena
svr
Vím
##ždé
##SSR
##škem
poloost
##sud
Palm
portá
Měsí
televizn
Akce
současnou
##poslanec
zmen
pokuty
podpořil
któ
epiz
Společně
Domácí
Smet
zapl
Jun
pracovala
absolvoval
1987
Pouze
zkoušky
proběhne
Mana
Šť
působit
nesmírně
Vero
Top
##alismu
Pí
zemřelo
mínění
třetině
zeměmi
##istům
dosáhla
palubě
##atur
volbu
Bush
could
činností
pops
Ass
nejnižší
##ray
česko
USB
edm
procesor
tl
videu
attack
##ologické
##atele
zdn
##žku
Israel
autoři
vším
strop
objektů
závislosti
rozsudek
odpadu
výkonem
řešením
MHD
parametry
šíří
slovenský
žáků
tkem
rej
nedostal
países
sektor
stejná
sb
termin
Třebí
panu
Strany
##elka
Dříve
Naposledy
chová
solidar
zří
platnost
OP
předměty
zachovat
SK
resort
hostů
lidsk
mn
ohroz
Vladimíra
berou
harmon
pošt
128
Sobotky
zaslouží
krátk
přicházejí
vypla
vzala
dveří
našt
zmíněné
Minul
radikální
přišly
kilogramů
ON
##rku
zjistila
Poro
žalobu
věcech
zájemci
##pé
univerzit
sledovali
fondy
1970
##měrů
logicky
manu
zemřela
podobnou
něž
##kládání
efektiv
způsobu
Nico
paliva
Zim
atraktivní
silná
##AL
obrazy
výsad
Tentokrát
02
Klub
dopravn
technick
Podrob
Každá
návrhem
1985
##iro
investig
udělala
ochrana
šok
Toho
haly
podmí
##covat
Bub
##ologie
zvá
řidičů
analýzy
Zna
##zimu
##ňské
Kalifor
Dů
postava
##vaných
pozemku
bus
branek
bydlí
Hil
provést
osvětlení
uh
kandidovat
##ákem
stupce
kontakty
##ardin
fotbalový
vazbě
odvětví
##šeb
##mach
tabulce
stri
památek
nespl
kontrolní
uply
vyrost
Otev
redu
předlož
příkaz
NK
amat
modr
respon
##mořské
dlouhodobé
American
dekla
Lubomír
pacienta
kombinace
##tico
##míra
hmotnost
Dig
mik
mezinárodního
hus
nejob
Kate
Střední
dívka
počátkem
spodní
158
Bir
Nyn
příběhy
dorazil
Leon
##verné
##řová
Zastup
emu
them
procenty
Anglie
ekonomicky
mto
vývo
variantu
varování
Nemocnice
##aví
##ávala
##clav
##ante
Bost
automobilky
opozici
agresivní
myslel
devadesátých
nedop
##lka
Bělob
Android
pokut
##bio
úkolem
modelů
skv
Několik
britsk
národů
svědků
webových
toale
dálnic
##tejner
##kow
##eden
Radim
prosadil
Boleslavi
zaměstná
Manchest
Pas
176
pero
považován
londý
neli
countries
Daily
Bun
##odě
nezna
statistiky
sci
##miento
nesly
pocity
vnější
nemohu
Festival
přiznání
sluch
Region
uvědomit
##lák
nechceme
Bartoš
vzápětí
techniku
Litví
mimořádné
zajistí
vzali
rap
právního
nakoup
sezóně
##něným
úvahu
##rity
volbě
zvyšování
Obchod
zpracov
výzvu
Náš
sympat
odtud
lidech
##rokra
Street
silnicích
žijící
Johna
Novém
##áčka
export
internetových
##15
spekulace
##rovoz
technologi
dopravě
Pět
tunel
Paříž
Aráb
režiséra
pražský
nezap
Green
fyzicky
prezidentských
nepatří
rostliny
loupe
rop
Roy
Vyšetř
##stická
navštívil
Ukrajinu
opakovat
##enám
připravil
##ate
publici
nejsilnější
##lovali
##adas
Asii
##istán
čekal
úředníků
nejmlad
##ůjde
dozv
sankcí
##slední
užite
zahájil
ovzdu
zvět
česky
defic
víte
absolutní
Syrian
##premiér
intele
Autom
zbytečné
SSSR
##ša
282
ostr
spolé
Test
čtyřicet
běží
##ments
částech
vypově
Orli
správce
##čina
jazyka
legislativní
armádě
témat
##ror
havá
Dv
Park
Alexandr
##amente
ece
spod
cítit
pohlaví
náměstka
průmyslové
odli
##pení
##edu
##lexu
Íránu
178
zástav
vlny
třetinu
návrhů
##ovatelem
Účast
Son
ministři
devatená
##hád
desku
zastán
vyhla
diplomacie
reality
podoby
polské
pavil
##chi
přístroje
1976
ukončil
dnem
zastoupení
provincie
hrani
karta
koupi
sestry
vzkaz
pred
Anglii
Opravdu
SE
znalosti
bývalých
výrazné
předvolební
jakém
Pad
##nající
Mul
záchranu
ačkoliv
registru
##úspěš
policií
Takový
Och
Ženy
Rusno
1967
Chu
zúčastnil
Řecku
Hlu
demonstran
prohrál
how
poví
postupem
Prima
##obu
##itky
##stických
Edu
parlamentních
našim
##číme
stažení
pomohla
zaps
ház
pozměň
##view
humor
novela
##kle
prst
Anti
ivota
předmětem
Sw
vojenského
Siria
##12
autě
##loni
schv
Pova
##ládají
spotřebitel
barva
zakázku
zřízení
##rovali
prz
spolupracuje
Vir
duchovní
##korup
Chtěli
pul
##sona
Navr
Připrav
Motor
vyzkoušet
nejpo
Zemi
přihrá
založen
pádem
nastal
zelené
lidové
bos
South
Ona
navštív
Slovin
vidíme
nutno
1918
chlu
##pustí
Fe
##IT
Čín
reálné
Oby
Zhruba
podzimu
příkladem
nabídce
Prim
Spr
spokoj
informovat
měsíční
Down
##ctions
veřejnou
Oček
##vníci
##voká
zjevně
##ül
Sin
Berlíně
představu
blok
jevi
přesah
ohni
Oz
Map
##škou
boty
##umím
melod
čtverečních
podporují
rozpad
Dž
atle
Muži
##Hz
kontrola
kyse
hodinou
informat
UE
transparent
edpokl
každým
Mladé
don
Naštěstí
téhož
Wat
krku
##ün
##milion
##biskup
herce
technologii
pracovali
nezn
##zkumy
fotbalové
Pop
sehnat
duel
poslaneckého
běhu
kauzu
Lá
minutách
vozí
signá
produktů
ole
hodí
Ce
jmenování
manželem
Hvě
protesty
reklamy
diskrim
##nesla
střele
poklesu
aliance
cir
skvělý
Výbor
hrade
plní
domácností
kurzu
platby
přená
výlet
účely
##pá
##stojí
##mán
možných
otcem
pravděpodobné
Trad
devá
hospit
##fikovat
kyber
vyprav
odhadů
Misc
nohou
knihovny
filmové
mlý
zajišťuje
severovýchod
italské
tepel
##šeno
čísel
##berga
vámi
##ffer
lal
přinést
##skočil
She
asij
North
zdravotním
evropský
reported
jab
vyhý
MUDr
trpěli
Ericsson
demisi
1500
takzvan
Maz
absolutně
##ňovali
nastaven
jmenoval
##host
##mento
##žívají
Fab
##dku
společenské
šik
využil
Pau
Sama
kuli
nud
trápí
signál
potká
Než
ednictv
plic
zvon
Chovanec
vzájemné
úprava
sochy
gt
herní
chaos
##zdrav
přivez
Cas
starat
milimet
nevin
Topolánek
##aster
List
promí
Serg
čtvrtý
postoje
zajím
sestavě
##izaci
Začí
toleran
Pís
vhodn
Coun
Vyz
tempo
Nedo
nahradil
nominaci
rol
podobná
Islámský
příjm
##rexitu
Ježí
překvapivě
Ut
zákazu
otřes
kolegů
propojení
##ett
##instal
jsi
##ávky
Zlíně
odehrává
nějakých
zlev
šestnáct
##CH
zdrojem
držel
##eren
deal
nádob
oceně
Matt
Ki
nejmenší
obnovu
přip
autorů
only
dokázala
MP3
dole
Ide
##čnější
získalo
##ceny
efektivní
##byla
nezákon
Rok
souhlasem
##inění
ase
internetové
##avý
rozsáhlé
prodává
Kob
ox
##ovkou
kontejner
kabinet
Bay
soudí
Nebud
zastupitelé
základny
ebu
rizik
ligu
Dana
Cesta
nevadí
remí
velvyslane
##ičkou
grafi
##pit
##ládat
Nu
ekonomický
##avé
projít
ubytování
Daniela
##hrada
facto
francouzského
učit
##dl
lidovci
souhlasí
personální
zaz
líčí
nastavit
rozměr
odch
podr
nue
BMW
ehled
řádně
komora
rozdíly
symbol
způsoby
evropskou
This
##cházely
hydro
All
elektrické
příprava
Vídni
kód
##inos
Union
vybírat
středoče
Boe
Nevy
posun
Klá
Rol
zálo
úspěchy
léká
Nemys
obyt
##gosláv
##jezdy
masivní
chlapce
##anty
postavu
nere
maminka
plochu
přijíma
Zejména
dotá
intenzivně
prok
člena
výhodu
hale
egy
Asie
##zdo
Existuje
##řených
##hren
obliče
zástupkyně
magistrát
##cená
##esh
skládá
postu
##16
smu
obt
ekonomickou
ruchu
Takhle
Sha
snadné
Island
záležitostí
plocha
dcerou
##ender
jezera
verdikt
dodr
Cenu
##RO
koliv
koncept
EP
šancí
postavena
ovan
vybraných
Cast
počtem
Sur
##zetí
trénin
##řídí
may
##äs
##ardy
##redak
strojů
##mož
##ínu
prodal
pomů
názvu
vyjadřovat
lup
Zprá
rozes
lokomo
tce
##skají
zor
nejrůznější
##láme
složky
mek
nedot
##zený
1960
oddí
odě
##luvy
prot
Nebylo
kamera
léčeb
pokoje
žadatel
##lovan
tratí
##ickému
důležitou
##enského
##ženě
nesti
nezávislost
Gor
zůstalo
významný
příspěvku
provádí
železni
Karl
Koali
dostupné
vybudování
Upozor
opil
##enému
měří
##vního
##štěno
##livost
cyklo
daly
rovno
##ovec
paměť
originální
naším
##sadil
sále
posádky
Akademie
komunisty
koda
linka
okolnosti
Mand
nevo
vedly
běžen
amne
politikou
obchodech
##mper
extrémně
náhradní
Sad
daje
významnou
uplynulých
##žď
##zájem
Core
Ameri
klesá
milost
1944
##identi
kandidátky
Celkově
hlub
Stavba
jihovýchod
vojsk
snížil
PL
vesmír
vůli
Raj
respektovat
srovn
parte
##lash
##alizovat
1972
##ły
pustil
Jablonec
##meny
Karlových
##pet
pokusy
##seud
##znamy
Číň
architektury
vstoupit
fam
připsal
##šce
vůd
##šeně
##sive
každému
Ode
odeb
dílem
Vic
1979
koncepce
prosper
haben
sezóny
kritizuje
##telit
nesku
třetina
záložník
Ligy
##ceno
svědky
Eng
zása
snažila
zkomp
Ryb
alternativní
insta
rozhodnutím
migrace
Dle
HN
Francou
řadou
1981
upřesnil
zmoc
##žejí
##pravu
povstání
centr
požádat
past
mezd
povinné
House
##otva
Jac
Žluté
Většinou
Neza
Marka
##řele
##pil
1982
Ferdin
AC
portré
splnit
Motoro
##isen
opravu
D1
##mm
##ör
výstava
miz
svěde
Izraele
Nového
pis
Budu
přesvědčení
činy
StB
Sice
činů
##uti
tvorbě
##änd
##ide
Americký
golf
vojensk
Předpokládá
##23
dnešním
ruskou
zuby
tko
leck
poměru
publikum
lékařské
ank
výhody
statistik
Real
dělali
##egas
Parlamentu
##mand
korunu
bojů
##mocí
bek
ileg
kaple
nasazen
##kovými
##ňové
nepova
manžela
málok
Rovněž
Sněmovna
wird
mraz
##hyb
jindy
aviz
Guardi
Hasiči
##lými
##ičce
výborně
Hom
terén
jakmile
1950
dočasně
ústavy
##ezení
kapacitu
kryt
zneči
dokážou
tho
výnos
##řely
výrobci
##emp
planety
Madrid
##rozumi
##rij
Bezpeč
myšlení
Dienstbier
cre
historik
trasa
společný
##kládat
hovořit
propoj
kdybych
emoce
armádu
vyrů
Západu
Španělsku
články
příjemné
užívání
vyjed
ponor
regul
nemovitost
##ratislav
##istka
##zených
nápis
ačkoli
Jor
1942
referenda
Str
bezdom
dohlí
příčinou
##dia
Hled
##fen
zvítězil
ker
1983
pravděpodobností
##aneme
západních
bun
Vra
československé
White
##nostmi
Mysl
jmu
vcelku
považovat
úkoly
CIA
##povídá
##cenou
vyrovnat
##chl
manželky
Hejtman
##řských
zatí
Sev
podílet
Poslanci
adop
Pě
ekonomických
Mes
##alis
životem
Ara
##inovou
##lywood
Stat
Systém
zapojit
krátkodob
chři
vrtulní
jejímu
Mercedes
##ronomi
byrokra
hledají
BIS
tramva
##terán
vesmíru
zvládnout
veče
bre
nepřes
barvu
360
malíř
##fie
Pent
centrál
psali
jednor
inženýr
##čák
vrátili
silou
Ostatní
duchov
jmenovat
Hradce
##kými
##něně
Úto
Nob
lásky
Analy
##roste
tora
hovor
seda
Produ
kategori
interiéru
##tern
##zia
válkou
uvidíme
kulturních
komunismu
vládních
pozitivně
parkoviště
nelegální
kred
snažíme
postavili
jednomu
platů
ztratila
sloužil
evidence
mateřské
##tyš
Šaf
public
##uri
refle
Mala
smet
dotazy
##hledy
malo
technika
zkušeb
bat
konkrétních
stejným
##žik
##regist
proveden
Mimochodem
nerov
Insta
setk
ateli
Pardubic
##urg
životy
Udě
audio
přejmen
vyspě
##nést
cukrov
instalaci
##inek
Manžel
##wal
Zp
Romana
neoh
##laj
prozkou
Cur
prosazovat
dopadlo
AS
##pany
potla
##zan
##hoten
Austrálie
senátu
##stického
Sav
##riky
SR
doklady
##álil
dosko
##čenou
dni
trzích
Sparty
vloni
Topol
správný
##pravo
zbytky
splat
continu
rusk
Nejvyššího
##habili
ohlas
poma
Tor
Bern
1974
System
Vždycky
##náší
##cování
stupn
bezpečí
interna
mladík
ensk
pořádá
uskupení
end
##ague
požadavek
vac
román
##žnou
skan
nedostatku
vytvořili
volno
vteřin
##pouští
Národ
poplatků
##dat
##kovo
first
##zoval
porno
Hrd
obraně
status
klíčových
soli
dopravního
zlín
lka
##ęd
##telnost
1964
nezaměstnanosti
unter
Vas
well
##kovu
Rozhodnutí
pilí
brány
kuf
mobilních
trestný
ublí
eh
Čun
##cembur
Maďarsku
VZP
budování
roztr
Mike
líb
reaguje
##dorf
1975
stabilní
ozdob
125
pand
1973
strachu
tábora
Brusel
##zená
uspořádání
navzájem
when
Som
tahle
dus
klienti
nákladní
brzd
Lam
##mund
Hru
nezd
pravou
intelektu
vybrali
##jez
Plan
##zely
vyskytuje
nekomp
##řuje
Československu
Sab
mer
Chel
příznak
rozhovory
##ZS
think
úsměvem
##čků
##znamenala
vzájemně
nejas
Gross
##enec
##bytku
##imb
##tivu
##round
léčbu
váží
charakteru
##pustili
Herman
autobusu
fotky
sezná
modern
ofen
zneužití
Jitka
##stří
Červ
Řecka
chodu
porodu
ihl
studii
Pekingu
minimum
##čela
dohodli
myslíte
cestování
justice
zaost
nejdřív
hi
##munic
##řenou
##isti
IC
Petří
offici
##ator
say
programem
vysokoškol
čelit
##ques
impul
úm
Rež
Letoš
belg
##silo
Kyjev
bojov
Plus
dávek
použil
##žším
Vyt
wur
přítomnosti
##ons
neděle
agentuře
Kau
bol
mari
1978
sind
##bach
##edon
okolních
Kre
grafick
Buď
Bill
##pend
uvést
přivo
##ull
kouz
technických
navštívit
Colo
pokoji
naznačil
sma
službě
##ňovala
tna
kosme
##ovýchodní
##lovar
jízdu
uhrad
cerem
##xa
Trest
work
vzrostl
Nejčast
miner
Dam
přispět
východu
latin
dražší
čtrnácti
##DC
Wer
odmítli
##19
stupni
##kos
jakoby
nebe
lesů
připoj
Sedm
Maďarsko
kritice
Závě
According
veřejnoprávní
president
procház
podotýká
##icko
rozsáhl
osudu
veteriná
zůstaly
požaduje
snižuje
židov
TA
úkor
prvků
Mnozí
pohybují
Kle
##adi
vyřad
Krimin
litrů
##eníku
projevuje
vítěze
BPP
zmír
Jeru
##ctav
jna
dialog
Nagy
přistup
##plet
telefonn
pochopit
indu
##och
některým
Izraeli
Podobn
Media
zapotřebí
sin
##později
##itelných
ruso
zhodno
Saz
##řiv
Johan
Smlou
racion
Off
kouzel
vaši
minulost
Závod
členské
##lička
rozdá
pravice
zobrazen
umělecké
##inový
mrav
obsaz
zadarmo
mimochodem
říkali
spokojený
##alismus
chodn
bezmála
##stickou
##láves
oslabení
předčasné
brněnské
Krátce
Spor
selhání
##kara
hrdina
than
hranicích
those
##boře
Andrea
Plá
##što
##jíždět
brou
gala
lab
##prů
obnovit
bord
Ukáz
iPhone
ezna
##fí
stavy
obsahem
gan
dřevo
minus
##ózy
##rnu
dostate
učí
celkového
sněm
ženě
věznice
Technolog
##ück
Dagmar
lokality
účastníci
čisté
vytvářet
odmítají
kuchyni
kdykoliv
americkém
Blesk
připustil
##até
určené
studovat
znění
patřila
##cházeli
uděl
##bank
DNA
červené
pohřeb
doporučuje
ST
##peci
##álky
dělí
pozornosti
Skot
okresu
brankáře
##18
navazuje
##esátiletý
radí
Xbox
spolupracoval
nátla
věže
ervna
nedovo
civilní
možný
zvýšila
rohu
##jdete
službách
těhoten
odpoled
anim
paříž
##rolog
nepochybně
okolní
zákazníci
##luk
##mněla
zemědělské
protivní
národním
Prahou
projevy
nads
Um
komplikace
##myslem
Jeruzal
vyú
East
tehdejšího
##rante
přenosu
konn
novými
##idlo
ovzduší
Kolář
administrativní
##ecé
down
uvidí
179
Veronika
##tivé
pravideln
##inout
Místní
nevidí
grand
che
výpovědi
konala
##nku
tržeb
scre
##řát
Dráb
výpověď
komunální
dotáz
dl
##bohat
společnou
Soukup
esko
novinka
##kur
##load
##pot
vůle
migraci
vrst
##ktech
agre
expertů
Pá
##opat
kostele
neup
profilu
kuchyně
sestavy
podala
právem
vzpomí
Zách
nouz
##hodou
řadí
nutnost
group
Maxim
##chově
##matu
##ložka
zaklada
Vídeň
vedli
šoku
vyšších
##sor
turistické
značka
##skar
lar
klesl
promít
zažil
ustanovení
fotbalu
oblou
otázek
psycho
Hong
oblíbené
nejrychleji
obsazení
suverén
##stěh
starého
Veselý
bitvě
motorem
přemě
##čata
pseud
pořídit
promluv
následné
Příbram
plak
léto
##hould
obu
##dam
Louis
##inten
přehrá
trestním
trvala
klienta
způsobit
How
nahrávky
mni
##žnější
postaví
Jelikož
fungují
General
blíže
Brod
Litomě
neštěstí
1971
##GA
Můžeme
pojetí
Tábor
Nechy
nejúspěš
prosím
uzavřela
portfoli
lost
portálu
kandidatu
upozornit
rytí
redakci
Vás
vzděla
GSM
##čními
normálně
promluvil
sekr
odchy
priorit
##hern
Peake
Zas
zniv
sbírky
kompromis
Napro
1946
Druhou
##ývala
záběry
Zemanem
period
pánové
fronty
televizních
Jej
změnou
##stře
léků
lož
dán
dobrého
drogy
ansk
Sáz
zbytku
samostatné
podlé
Nis
Babišem
##dán
komunikací
účastní
##skl
##ema
luxusní
telefonů
bouř
nedokázal
Práce
Můžete
EC
##alita
1977
hráčem
odborníky
fik
karlovar
##lete
##kovic
letouny
Bit
obrovská
desde
výstavu
sportovních
Leo
Deb
vyrábět
Agentura
Téměř
ip
Osobně
Chcete
zajímavý
Sokol
NASA
rys
celo
sazeb
prokaz
osobního
mládí
pevně
##ratel
expon
administrati
rozk
problémům
nedokáže
rozsah
pomohlo
výzva
zazní
vysokým
##chá
kompon
Varech
Vánoce
State
FI
##stant
kolech
původním
zabezpeč
Vysočina
volbám
Přemys
HC
bill
probíhat
blesk
##nii
probíhají
zdůrazňuje
Působ
nezam
1949
##lian
##hoty
pochybnosti
iniciativy
basketbal
##pustila
debata
kil
Nehoda
vystoupí
zdravotního
nesmě
nego
zur
konfron
sloup
vraždu
koronavir
Sdružení
Siem
směje
##zdvi
##ánem
předchozím
závěrečné
hmy
kláves
přinesla
provozní
soustředit
archivován
místostarosta
##ýr
##ící
zum
JUDr
esp
oblo
chrání
jízdě
levice
##ezpeč
Náz
last
skrom
firmám
očima
##anton
Ane
americkým
fakticky
##atlon
Radka
Postupně
vezme
jedenácti
chova
přetr
##ive
šéfem
##osof
proced
Rez
Von
obklop
Koment
egypt
namísto
Maria
poskytovat
implement
Rit
##win
##hosp
##nica
zvykl
Ok
podílu
Nas
zapojení
##louho
ký
místním
hrdiny
těžší
Kl
Ori
##reich
zdanění
Kru
časy
##nička
hala
volan
Zemřel
rozhodnuto
příslušníků
##inese
přeč
Nymbur
##ejmenším
připomenout
tunelu
žádat
Alexander
schůzce
CO
pokaždé
rolí
reklam
bát
uvedené
nevěděl
přátelé
kapacitou
lokalitě
sekret
neviděl
Jem
nejlev
Charles
pacienti
##kot
##urch
##kováno
střediska
450
občerst
náhradu
Postav
vybere
reprezentační
dodržování
cur
km²
Liberce
priority
##hrn
##istan
Maláč
obchodního
klesla
šedesát
odborník
obviněn
##able
Gro
vyzývá
přemí
##večer
Smith
vymá
obtížné
##plně
pochybení
ránu
1941
pokuta
uživatele
patrné
volebních
komunálních
partnerství
plát
##alogu
##very
proviz
ŘSD
beze
##lostez
cílů
spotře
zneužívání
hří
Důležité
regula
Gran
kláštera
Podobné
##ovanému
Španělsko
klaví
kondi
přeci
omlou
Jones
##uni
vlevo
subjekty
175
komor
hybrid
##ženi
Spart
##bie
jednal
ukr
Kaš
MA
arcibiskup
Hand
##sticky
čerpání
##čich
kým
Pardu
##ions
zahynulo
##tus
##razily
přenes
modré
prohlídky
##akcí
bei
252
západě
narodila
celých
vidíte
rozšířit
kůži
##roji
civilizace
##šan
nahlá
trénink
ines
Londýna
##ild
##oman
lesy
##žných
Petrem
samostatně
bance
vyslou
týdně
claim
##vádí
zvolili
Pap
##ape
konání
vzdal
Okres
neopráv
nation
vystupuje
utí
vojska
Centrum
vyčís
##ářem
dozorčí
##kaj
adav
diagnosti
177
přepad
soubory
nedostane
Úda
fyzické
Pardubi
kud
úplat
hodit
znemo
vydrží
nástupce
Jap
výrok
humanitární
jemuž
podnikatelé
Čt
mezinárodním
očí
##loučení
##ejme
##vange
drama
##abe
lie
Bonus
##lát
dia
podepsat
nemůžu
##štní
Kdybych
Klo
muzeu
Dali
Žiž
Nam
size
nutně
pátrání
učeb
vydí
cituje
proběhlo
vyhlíd
##dan
zpřístup
Kyje
mandá
prostorách
vyhra
poled
stavebních
Jim
přidat
##áková
plánování
Dvou
##líka
dostupných
miliardu
Roberta
##rádek
zabil
nemusel
zůstanou
Olomouce
neskon
Sokolov
uznání
kapes
vrchní
člověku
##ener
##kládal
Vaše
Bohuslava
vědy
nároky
non
##šného
perman
stránek
dobro
Janem
vag
Cru
nepřízni
fat
hřeb
vyvin
stůl
minor
autenti
##ňme
##ovníci
##dé
opery
##etooth
trub
volí
##rimin
detektiv
slev
renes
##ston
Georg
prohla
Víte
pivovar
Svůj
protikorup
Královéhrade
Plí
zavést
Adolf
finančního
objektiv
chalup
atmosféra
##lét
pokusí
změnilo
znají
##obchod
lokalit
##řádek
adap
soudci
Abs
##ativ
příčku
Jistě
katedrá
cukru
hoř
lout
Gold
##cházení
##ánku
proprac
pachatele
fru
Rum
Budějovicích
skrý
Chelsea
linie
pohodě
zastupitelstvu
FBI
kousky
restaurací
exminist
objevilo
Běloru
známe
ambice
olympijské
##ovné
##átorem
##tivou
rezolu
##iem
přijala
masak
ruko
dobrovolně
rehabili
Siemens
March
úvěr
viny
obnovení
sledek
letounu
##rong
trž
right
stavebního
##ratili
vodních
hraní
satelit
##berou
Agrofert
konzult
kůže
##věty
prestižní
akcept
##kovič
ochotni
##tivo
byznysu
Znojmo
závazky
pirát
tomhle
afri
##halo
loňský
einer
nevá
metoda
litr
nutnosti
doufá
ztráta
##cs
Tabul
Malé
neří
Bara
Feli
sei
##řejí
víno
ploše
poradit
zavr
rny
skou
Bene
přechodu
neudr
městská
lehké
běžných
svobodě
Mun
utrpěl
mku
##ctor
vytvořila
Amaz
##šeny
stížnosti
sezona
lese
dvacát
naučit
manaže
kandidáty
zek
##skokatoli
##hodn
##platek
nevíme
odvy
napsat
Ondrá
související
poukaz
Valenta
energetické
Opat
Finanční
znaky
miliardá
vyskyt
filma
Pák
necí
zápis
úkon
##átem
nedostatky
##35
akt
Stří
przy
Stráž
##hlu
vytvoří
Jednalo
osvobození
enosti
Istan
spoleh
##ios
spadá
zabrá
oblač
jediného
Výsledkem
zprovoz
##hujte
obrovsk
ang
##stoupení
hn
Cu
nedokon
odpovídající
Novinkám
##orf
zaplav
padl
uvedeno
##bám
being
teku
lesní
Letošní
Policej
int
debatu
mky
Komer
Karvin
zveřejnila
vedouc
narů
kala
planet
spolehli
přiblížil
world
Krum
značek
Orb
pěkně
##zuj
Wik
občanství
umělců
zaregist
##émi
loňské
stromu
##telných
hodnotit
Slavii
home
Monika
##mala
Had
##láním
Vysok
##ania
nemocí
Doporu
kub
wie
##sce
Starosta
Ther
##ětřes
příspěvky
##hnou
Music
veletrhu
jaderných
vyná
Home
cukr
záku
acuer
napadl
komedie
Bohemians
vyf
##FC
radu
##ranté
konal
Nelze
naproti
migranty
ryby
dohodnout
Indii
Kuba
vypoví
zkontro
NP
váp
nejpozději
dirig
Kohout
nereag
kratší
Krym
poky
Zach
ekonomice
zho
útočníka
dětských
vrat
obět
##řina
tvrtek
organiza
barevn
dvojici
105
nevyhov
##ful
tepl
reci
Tok
tah
reklama
Pravda
##sman
##něme
eng
příležitostí
světová
Dům
uzavřít
rozmí
##měří
##pie
uznal
Nig
##tům
panuje
číst
Švýcarsku
dlouhých
inova
tresty
Organizace
uráž
dokonal
nepomo
Jágr
ostrovy
pomohli
trasu
majitelem
registrov
Ono
nedodr
zahájila
nce
necel
##tečním
##ámen
silniční
sídlem
libovol
zájemce
barokní
Drahoš
invali
přiznala
rebel
Donb
pobočky
should
Alp
projektem
##DP
příjezdu
Koncem
sebevra
vpravo
designu
kovi
vyvolat
kilometry
učitelů
odes
karos
největšího
##rent
Zbo
pozic
vypov
odehr
novelu
závěry
Poj
##ses
volného
##alist
kó
vs
##otou
odvolal
odjel
try
výstavba
nedávné
##ves
Vyst
dopravce
sociálním
povolání
platu
kvalifikov
konečné
Milana
věřitel
skladeb
atom
##lick
support
Zákaz
##čítání
celkovou
postupy
Domní
předchůdce
fajn
regulace
##atlan
stíhá
rech
šestnácti
disponuje
Kod
Bes
##žely
sun
rozhled
matkou
testování
pruh
struktury
sledoval
poci
měk
složek
odvahu
následovat
shodli
zítra
mrzí
ges
fotba
stole
Got
osobním
tod
opatr
preci
obsadil
Jure
gest
zkusit
Osm
dodavatele
##lování
Ústavu
##óza
sop
čemuž
rozloze
epo
nehodu
konstrukci
divit
Paříže
##ďa
zveřejnění
zko
reforma
přirov
vzoru
dílny
##snější
pasaž
ambici
hne
linek
odně
znale
určitý
##slou
135
##nostem
sekce
reform
rozlišení
započ
snižování
FA
diskutovat
vyloučení
doprovodu
Europa
kř
##inásob
titulů
him
Saint
1947
Havlíč
lt
Daesh
##fob
##rari
Vítkovice
dám
##adel
benef
podobným
brz
zasla
guverné
hyper
Sud
zkr
##isa
obvykl
líto
památku
Voz
pracovníky
kdybychom
##mani
##gera
změnám
Wir
feder
symbolem
vyloučit
odevzd
Brn
Němcová
Mali
Tay
nedaří
##cara
##cil
1940
fakultě
nemění
##ěje
oslavy
nemuseli
SU
očích
tí
##ouští
hmotnosti
##Station
Vysoké
konkurenceschop
zločinu
dráhu
Bavor
##skie
motivy
AI
##hodnotil
ekonomického
vyrovnání
zlata
přep
zně
popí
výjimky
##álení
nesprav
Žádné
čoko
spojenci
Fren
zaplatil
Log
Web
dopise
automobilu
Hr
pustit
potrvá
českými
nora
ombud
určitých
brexitu
významu
Význam
mané
rodinných
padlo
zásadě
neur
Výsledek
významným
osmnácti
##fore
dějinách
příchodu
##četl
realizovat
přirozeně
lce
vyznamenání
nařídil
101
Chomutov
vznikají
syrské
poměry
stín
cokoli
metry
kritika
osíd
osobě
fle
exo
vzestup
Serge
čtyřiceti
Žal
kön
##éři
##emás
Zaj
Japonsko
##itativní
very
##ija
##naje
zůstali
Came
##cm
##čká
##livosti
Ukraine
240
středně
Paní
těžký
důležitější
##cts
kořeny
okamžik
křídla
poznamenala
##hradě
partne
YouT
stvo
##ičtější
otrav
vydavatele
Mid
sotva
zú
půlnoci
##syst
dokumentace
Němců
vašeho
volej
##nych
League
Svit
##vač
kosti
sníh
fand
ustav
Nemám
Zástupci
průměrné
##fra
scénu
rychlý
zodpovědnost
padu
Bílého
cíli
buňky
institutu
skep
Švédsko
plánované
posílit
Patří
##atické
holo
pet
##alán
odbory
Panny
Urban
edes
spar
kolektiv
Ala
kina
ES
řídil
nefunguje
odborných
potvrzení
Láz
Minulý
##iček
morální
starou
obchvat
Game
Jizer
##grační
ic
spolek
letních
Bělobrádek
Východ
ukry
malým
zasáh
uvedení
mužem
Vodafon
Mom
RPG
mistra
PlayStation
due
##bírat
bohaté
učení
Porošen
karanté
limity
kvalitě
##antů
vyps
1965
celkový
##cením
##ovanost
##chta
Obecně
chlapec
Sí
##dělá
prohráli
Občas
vynech
setkat
lead
dosažení
dívat
audit
plnohodnot
volbou
Audi
pravidelné
cigaret
##ode
dospělé
Islámského
starostka
##sible
propagan
##taf
vlnu
stranami
zmat
##ázeň
reakcí
cyklostez
Rakuš
slavné
Bart
Belgie
##lená
ztvár
Fotografie
vstřelil
nicm
##entes
Nedávno
vyšpl
##urs
Hlí
##tín
inflace
nechtěli
##clu
názorů
Klas
did
##sile
Faltý
Stream
Prostějov
Lite
Server
mobilu
nejbližších
plná
neustál
result
aktivita
ředitelství
Čapí
trestných
Jakuba
svědectví
Heg
zjistí
počkat
Těší
říkáte
úřední
Ústavního
Turk
##tz
některými
zvěd
nějž
upravit
velvyslanec
portál
##ckému
potřebovat
ck
katastrál
literatury
schůzky
žili
ohe
Rena
Cer
Kříž
Dmit
TK
Moz
Vietnam
zmizel
aplikací
odvoláním
automobily
sněmovna
připravili
alleg
krizí
rezerv
pracoviště
##mir
Vypl
hájí
hnízdo
##itivní
nadšení
expan
regionech
##érie
##hnal
3000
obvinil
partnerů
kroků
vzpom
zh
Někdo
Dir
nejlepšího
komentuje
líčení
brý
vyhraz
mistry
předpisy
tepla
##ára
natočil
##ilosti
1966
grandsla
dvor
including
Západní
Ministryně
jazz
těhotenství
lince
trat
šikov
Vyd
výbav
Elect
##jízd
kulo
Něco
lad
snažím
##tních
blaho
kolektivní
mužstva
sekundy
Kladno
dobrým
rukama
Ep
##láře
zpro
rozhodnou
dlo
hrozbu
nechtěla
1920
zlomen
Ped
šach
mex
sadn
##lun
kerami
vnímá
nevěří
##řský
europoslanec
dozvěděl
dvan
tajemník
stere
cítím
Kaj
dočka
Konec
klimatu
dnu
Prvním
zaznamenali
pracovního
Expres
##istánu
cizinců
prošla
##CD
nosí
nakladatelství
Model
Uvidíme
Blesku
základnu
Hub
náraz
klesa
literární
Deutsch
##štěním
výrobní
citliv
##niden
##nerová
##zii
Pentag
Berlín
reklamu
podlehl
trojice
marně
##icap
##berte
newyor
##ovník
pozemek
operací
##líben
virus
tentokr
prudce
primárně
ocenil
horn
Pic
##ženil
Zmí
ukončit
nezávislosti
doj
##oviny
lež
Hun
jednoduchý
prád
podstatné
novodob
kopce
velvyslanectví
slavnostní
jednodušší
nastoupit
psaní
Miloslav
ovali
oblíbit
Hilla
obal
lídra
##řetr
vyrobit
Defen
světový
živočich
Ovčáček
Nest
normy
předpisů
módní
##cií
severokorej
##chozí
##ranu
Získ
zapomenout
klade
Ústřed
##mají
##atolog
##adouniden
paláce
kořen
ervence
souboji
poskytování
pojede
sester
retweet
rezervace
vej
1953
Moham
##ló
Kontro
zátěž
Zeit
designé
značku
##ofici
textil
známého
výstavbě
odměnu
Lich
##šík
přijali
Dobeš
##ية
##spar
přinejmenším
##tul
rci
výcvik
lam
##yl
britských
Pardubicích
ostra
výživ
Tomio
využívání
ozbroj
1963
Nobel
nosit
YouTube
vylu
porazit
bezprostředně
počty
hodnocen
hazard
vesnic
Oc
uta
##craft
Prodej
territ
index
##lyn
hap
vyplatí
moderních
##basti
výrobců
##obě
svoboda
potý
srd
##medi
##ovávat
zohled
during
##kázala
Turkey
##šují
střechy
realizace
poločase
Rost
komerční
tradičních
zopakoval
konto
##líky
mýt
lak
Pokor
estadouniden
Id
alerg
získaly
##sahuje
souvislost
Obdob
##rana
##avu
zdravotnické
novému
Těch
parta
##lak
##měsíční
Inde
útvar
##jezdem
Výraz
Řez
regionů
vysíla
##řou
##kovský
střely
zlaté
potá
##stý
porušování
vítězů
##mení
##gs
slevy
středisko
rodičům
recept
Slovan
prevence
ironi
nejbohat
Dopravní
real
##hoř
schrán
##avské
předal
Lor
##bon
nadmořské
hlasov
mocen
shroma
vyrazil
virtuální
##atřicetiletý
Sara
speciálních
Albert
podotkla
vyjít
kouření
osmnáct
záměru
tenkrát
Navzdory
ib
vždyť
Avšak
sněmu
líp
beca
Austrálii
neřeší
naváz
##štěných
kolej
Jednání
##raly
##alitu
protoko
místopředsedy
energií
mladá
gro
modu
Název
##iler
##bot
benzí
čili
důležitých
dobrodruž
isp
nechod
##ývali
hrozilo
viceprezident
##nikatel
Amb
##háně
##ville
divu
obecné
##skal
ohrad
Lea
emis
Kvit
bazén
nejrůznějších
##chla
##luvě
dostupn
Lim
zákonu
zorganiz
Galaxy
##ďme
dílů
licence
Boeing
Cheb
záchranářů
větru
provozovatel
##ovateli
předmětů
##umber
děláme
##rce
něčím
běže
##lií
vyhr
konver
Toron
spojených
Kalousk
filmech
zapar
vyjmen
odborů
progres
aspek
750
1961
Aus
##bilní
zavraždě
Nut
Donalda
špin
220
vězeň
##enský
slabší
sobotní
moji
uhel
##skij
Ges
Dej
Bli
make
Cou
sign
obcích
seniorů
##itz
stačilo
demonstraci
Nos
akor
záhy
tvořit
Nek
##xico
jud
##orm
písemná
Foldy
turisté
vědců
##ßen
GP
ovlada
Wag
Roky
vyvolal
Alexandra
celostátní
Úspě
##ril
Pražský
mun
Zjist
stěž
posud
Věci
kusy
vzdálenost
Těžko
Hitler
zájm
přijeli
zvyklí
Mohou
snímků
##jíme
hý
##vním
odraz
známky
Taková
Červen
anket
závodech
Tchaj
Und
Alo
visl
##chyby
actu
##unch
Evropský
užívá
mým
Poslanec
půli
tržby
Store
havar
rekordní
uplatnění
majiteli
ovládání
korek
disciplí
##45
levé
##ference
restau
papír
osam
zvýhod
##obo
nedělá
##hová
ruským
Kul
Sz
puede
smích
Opět
odporu
Mně
##rního
návy
##spoň
##menty
anci
poskytl
usilovat
radar
nezaměstnanost
scénáře
Stropnický
mant
reálně
Partner
stek
##mod
kolegyně
week
zahrál
přijímat
mzda
prozradila
plech
insolven
obsahují
modi
jihoče
autonom
##vátní
rozt
hodou
mechanis
Kandid
rakouské
obsahovat
Vik
##kilomet
Brad
##VM
Start
##sions
Vlastimil
pátku
rezignaci
British
matku
mém
Staro
Budape
##ládal
zdán
připravený
Ratha
podmínkou
##less
kluk
Lucembur
soudů
izn
##xt
Mráz
Dat
vytv
Nemus
ZŠ
ženám
pocházejí
cn
ultra
danou
2021
brazil
best
sestup
Jugosláv
stěny
##randu
ošetření
Pořad
##ovna
Nikola
jihlav
prze
ehl
zisky
1956
Oldřich
Peli
jednáním
seminá
1962
kontě
zázra
spadl
výběrové
tře
vojenský
Či
##álí
puk
stag
zpřís
##kujeme
produktu
sníží
statut
zahrada
##vých
Hospodář
icetilet
##aciones
výcvi
vejce
komplexu
zákazníkům
##ison
trap
žaloby
##atřiceti
obzvlá
destru
##chova
##mátu
legend
Pirátů
liberální
čínských
britská
desce
pomoct
nalézt
Vědci
licenci
tyhle
jednoráz
nebudete
##skut
placen
provádět
arbit
stnanc
podílí
rekor
1943
##sm
nejrychlejší
Karolína
Bratislavě
Cont
jarní
Slavie
západním
ministerstvem
jaro
přeje
Amerika
##ال
vají
dodržovat
Hillary
sebevědomí
špatná
německou
kriminalisté
Zato
##rotech
##tací
zahájen
předsti
kameny
improv
##nových
výpla
spek
Španělska
Svazu
rodiči
vrtulník
filosof
mes
##ňat
taxi
fakta
obecn
Toy
vyrovná
počá
##letil
Odborníci
Party
##skob
týkat
115
MHz
vysvětloval
dělo
Cupu
facebook
vyvinu
lez
důkazů
##čkové
projednávání
Hři
nemyslím
##financ
úpravu
Meg
přispěl
##ejde
Domini
nezávislé
pronaj
veřejném
zraněných
##hodný
studio
hody
##AV
##aticky
Arno
psy
tržní
Alžbě
udržení
Out
výlu
soudního
nainstal
architekta
podpisu
chorob
případem
##istou
plánů
years
veterán
kanceláří
Nan
novinkou
nepříjemné
drs
zále
vražd
##tuře
trenérem
##99
Jaká
##13
Eston
embar
Skrip
rozmezí
FK
nemluv
vesm
vyvolává
studij
tváře
těžby
emisí
románu
komunity
dílu
svateb
##etové
jedině
Iva
samozřej
Moravec
##oftu
způsobuje
schůzi
přiznat
nabízet
Žádný
osvobod
ženské
##hama
tvrdit
##öl
mála
Příběh
##igen
foc
sdílí
Růžička
út
##řského
oprava
stanou
Telec
cestách
padech
sděl
útv
##hám
čekali
tlil
vestav
##ětřesení
Plán
přál
asnosti
čínského
Ana
##cow
nadsáz
pojem
kultura
připravené
císaře
Big
einen
much
bila
promile
percent
Gil
bitvy
heslo
zajímavá
uživatelé
favorit
Taky
##rekonstru
she
kores
UNES
##ped
margin
zatčen
překonal
negativně
made
Rekonstru
##cji
patře
okoment
Tří
##meno
cyklu
návštěva
mra
nal
Sergej
##dka
představila
obory
London
dorazila
##rey
LG
oboha
odkazem
Space
rodinn
Souhlas
Přesně
styku
nechybí
náčel
potvrdilo
##ohl
člověkem
Zřejmě
Thaj
prioritou
poptávka
hradn
přímou
Ekonomi
##žijí
##toto
označila
power
nejslav
německy
ambu
kontroverzní
##ohrad
kartou
utekl
komplexní
doporuč
stky
##vník
Gol
předeš
síle
##kovala
##gmat
bezd
akumu
años
##rách
vlaků
Lékaři
Obžal
handicap
nedostateč
August
NKÚ
pokládá
zastával
přímém
ME
nedokáž
přímý
##šov
jasná
chorvat
robu
provedl
##cept
Kapit
hektarů
Que
zajímat
zaznamenala
##spira
Vych
##terií
Utkání
Dec
Mnichov
bývalým
Patrik
dová
principy
ptal
Bluetooth
Jiřím
Chris
Pražské
kvalifika
odci
obvinila
čtyřikrát
Lisab
zamýš
poslali
naznačuje
1958
##hib
zmiňuje
garant
news
Jur
třinácti
Ran
poslech
krajsk
PRO
rekre
##ffa
reportáž
##pka
advoká
rozumí
##risis
##elli
petici
Žď
Ander
Berdy
like
ozbrojených
záměrně
nález
vzdělávací
nezastav
Sie
nehrozí
standardn
donu
jednost
##žiště
##ister
zdravý
psychicky
UNESCO
Zb
potřetí
##ords
##nictvo
flo
penězi
nastart
absurdní
verzí
sovětské
spravedlnost
kulturního
projednání
##ssen
enos
pravidlo
ord
Telecom
Dál
Příští
##hub
tvůrci
přistěhoval
Flo
SV
propojen
Liš
kmot
mandátu
učitele
##čany
summit
##adil
Pier
##kar
zamez
dotázaných
získají
apel
problematiku
Primátor
kapacita
šesté
prohlédnout
stale
oleje
hesla
nást
složitější
App
jazyky
sme
##jec
vybrala
nejspíše
##lované
173
otevře
Gabriela
zvem
##chyt
GPS
gast
##hodnější
žalobce
výměnu
těžká
analyti
##válil
speciálně
##ledi
Syn
sousední
slon
geo
Oli
innost
Pane
čerpa
##side
životu
##mona
odhadnout
poranění
padla
##ránci
Rodina
turecké
Změna
fix
Psych
uvažuje
zastávky
Barrand
Hroz
napadlo
pách
##líku
Víme
Sami
##TR
zbývá
Chalup
evidentně
bodem
while
progn
##back
letounů
daném
technicky
předpokládat
##žních
lák
##endo
political
muslimů
Greg
##bíral
potok
##itis
účastníky
##zdá
##28
Jackson
Ankara
šper
Rub
##níkovi
potvrdili
pokračovala
Bend
reviz
legendární
slavn
Nád
Prakti
Merkelové
jinam
Staveb
postavila
##kora
vyrovn
##ničky
volebn
zranil
hosti
celým
úspory
připravují
určena
poslancem
narozeniny
sady
##oprav
Švédsku
chystají
Josep
prvek
Tony
dobách
##manit
fotbalista
informuje
horizon
ya
Pár
běžný
Kud
tramvaje
sdělení
##lům
Spartě
Rap
ely
gólu
kauz
5000
překonat
XP
štaf
##udad
Hart
přizná
Drob
Dnešní
##žující
##růstu
enost
našimi
znalost
##MP
spekt
Fron
doži
international
tet
##27
holč
##14
##cími
jmy
olig
sor
##cze
dařilo
bin
##sus
osa
únor
zasko
jistou
##lana
##engen
##udio
##ette
pojišťovna
řece
brej
Čermá
maz
Jihlavě
Štef
tajemství
lokální
cizinci
ledu
Žije
Šťast
typů
kompak
##nava
jasnou
koncentra
subjektů
##ceně
nalezen
jednatel
charakteriz
extraligy
polep
pono
francouzsk
##ějov
souhlasu
##blo
##žitě
přesun
nečekaně
Mars
akcích
nahradí
Simon
beg
memo
Barbora
Malý
Trochu
koč
Poda
zamys
ploš
prázdnin
Sty
Teplice
zastavila
tin
##ktory
sky
zakot
##arlier
integrace
Wall
##äsident
kámen
dějiny
šéfredak
Každopádně
inspi
zeptal
displejem
fos
##ants
oka
nebezpečný
umožnit
průměrná
údajné
##čkovi
Nechtě
posoudit
lát
libera
bon
říkala
navrhla
účinky
nehoda
poznání
mrz
vodov
rovni
slyšel
zabýval
přáteli
zásoby
##zeny
drahé
usm
Joe
nástrojů
pyt
##kálu
dycky
##burku
zře
aneb
Guardian
hledali
##stoupilo
umělci
láska
Ig
Zcela
upev
lec
kandidáti
##nuty
uvádějí
##istu
těším
stačit
Holeš
Svobody
Sel
##ladel
##řebujeme
##nový
souhlasit
probíhala
dnešních
##áry
##bulu
Spou
just
hřbitov
mříž
příslušníci
Lee
sit
řá
##player
prodlu
##letěl
nůž
terčem
amatér
Fun
územního
Konkrétně
Rý
velik
tvrdé
hatte
nespráv
sazba
Německem
totéž
spokojeni
prvot
NBA
zastupitelstvo
vie
bydliště
even
since
podoba
štáb
vent
zbyte
##post
elektráren
tvrdý
majitelů
nízko
fyzik
kolikr
nedal
chodil
Dráž
Fred
##heit
nadst
pohodlně
##ją
##ňová
vyzdvi
##měs
chů
##řídila
stáří
transforma
přirozené
##graph
příslušné
Zapo
##jer
osad
Egypt
Novinky
podpořili
pouště
špion
bojují
FO
paradoxně
Tar
vynes
Hrub
zoufal
citoval
##rána
délka
Divadlo
trade
dž
ovala
trn
vic
##árka
##vangeli
hradě
Muzeum
měřít
Vyloučení
renom
Moment
ústup
vícem
výhra
vynalo
Dokument
Čínou
front
věr
##hrála
pová
oborů
Rem
family
souboje
hůř
##lt
Havíř
etapa
stavn
vládne
linii
Bagd
automobilka
zasáhla
##livní
Staat
##oney
páteční
Sovětského
kopí
vymýš
rest
bite
odvolat
##bum
platné
nemáte
Klíč
Zásad
bohatství
koupila
nízkou
Poru
otevřený
Williams
Stock
##nus
SN
##izar
modernizaci
zahrn
tragédi
ext
příto
novan
##řejší
těs
úvěrů
slovenského
##mej
##tační
Doně
##ason
##dar
přijede
popel
vzdát
adek
zaznělo
figuru
##dů
dyna
komentáře
Standard
Budějovic
##toch
elitní
Znovu
vzkázal
neov
příznivci
##ndt
##alit
bydlen
##covou
poděkovat
pozval
advent
reformu
prsty
oficiálním
vybrané
##urn
meet
pohoří
Maďarska
##hout
výno
stavbou
##oupil
příměří
dokazuje
málem
tráví
zápasem
šaty
Stalo
sídliště
odměny
heli
##anými
nejvyšších
příčin
sídla
##jíždějí
umožňují
zvyšovat
šar
Soft
##ars
Ší
sag
168
bankro
exped
odstí
obý
Souvis
Ferrari
info
válečných
interven
dolaru
Indian
##lones
tablet
##ents
neprod
biatlon
vyrazit
zajistil
Tali
Arsen
8230
##řství
nalo
Spol
teroristické
pravý
útočí
zaměstnancům
##jong
parkování
vězňů
##káží
napadení
vozem
jihokorej
interak
##nav
##cket
zastře
láká
ritu
Maro
##dky
neobjev
hezky
Malá
nedostali
Kanadě
##kánu
##alistické
městskou
univerzita
edit
##běhl
zákoníku
europ
Věra
odlož
pronesl
sliby
Brat
##pekt
kurzy
Naši
dámy
mladého
velkými
platební
##něni
Leti
##myšlen
Poč
rumun
polovin
zahradu
předních
úste
článků
partneři
kolen
respondentů
##tely
##čerej
##mněli
Dominik
cestovat
##zas
long
1952
registr
Štěpánek
tratě
Kanady
246
živé
zima
vědecké
porážku
Bad
kamarády
Příklad
pocti
tajných
míra
equ
zadrželi
volání
obřad
##padne
právních
Znám
##alová
##rica
skot
jednoduchá
zajat
nestojí
surovin
mode
Angela
zajistili
téhle
skončili
Politici
svěřil
ujeme
##TI
Here
##ovkách
opravit
kurd
plem
cé
Nadace
nižších
milióny
Lind
hlasit
schválit
elem
Kanada
come
Brand
nezletil
Oce
bezpečné
schůze
němuž
něčem
konkurenční
CDU
palce
Rot
městský
přemýšlet
##letým
veřejný
Chile
Sebasti
##rák
neč
Marian
účty
Radnice
zaměstnanec
nadace
historického
Novela
Nemyslím
##urnali
samotná
víceméně
##tíme
##onomi
Beat
obháj
projde
##etz
třída
obličej
nemožné
ohrozit
vzp
Zdůraz
Dobře
jihomorav
##lemi
světle
##ative
definitivní
přehá
tragédie
zemím
DS
get
lku
nouzi
Milit
Enter
##ecké
AV
##dila
##akar
režie
dani
##odpověd
katastro
##šské
žáci
Mary
Bom
Pražského
Třeb
oženil
##puštění
##zít
vyzved
vize
##tonu
interiér
##perto
zastupuje
farmá
Vál
čel
připravila
Ud
Hlad
Poji
dci
poledne
rozpadu
čtenáři
Fried
pošty
##atik
nákazy
##hony
##usa
ony
zúčastnit
neprac
objevovat
suveren
##rest
Jihlav
privatizace
přesné
1959
zrekonstru
##kre
Překvap
##řeje
##stiky
vytváření
nepamat
##ined
##bab
bezpečně
dveř
připomínají
##tete
neposlední
koloni
Cali
edch
security
##skev
##álech
##enách
Nebyl
domem
očekávají
vylé
##těj
povolen
hora
získává
1919
půjdou
rámec
psů
vyvrcho
##vilek
pěší
hudebních
lidovců
Tito
gy
baru
dó
režii
debatě
Stal
autobusů
ednost
zasáhnout
##komuni
schůzku
konop
stabil
pořízení
poukazuje
Japonska
unifor
mikrofon
lepším
zvolil
posed
vyhlášen
ukázaly
Uvedl
Vývoj
Sedlá
odnětí
155
zaměřit
Nisou
podali
nejdel
vazeb
zloděj
setu
vystoupit
potoka
provedli
unes
need
mehr
okno
bojoval
manévr
píší
výrazný
Mül
pomysl
velitele
Macek
##vie
výstavě
pohot
funkc
asfal
konzervativ
ranní
neoz
střechu
nejvyšším
profesora
##lara
jízdní
kober
činil
investory
hyster
narozenin
ekonomick
Muslim
ničemu
##ádí
pový
klasickou
##lines
skutečný
Říká
vystudoval
eskou
světu
jednotlivými
otci
trolej
Force
procentech
krad
ztratili
přešel
výběrového
upozorňují
Výstava
taktéž
recenze
##stad
Mohu
zabit
dělám
nerad
member
památka
různá
převzala
číslem
Igor
dorazí
námořní
Nach
##turist
1951
modernizace
##ňuji
vnímat
##čeného
Gazdík
Labe
uvedena
kontinent
tilet
sociolog
##děj
Oblast
Jičín
rozez
zimu
##hodil
##jížděl
SM
extralig
půdu
jestliže
Kolumb
Návštěvníci
evropská
hladiny
Mou
##íz
posudek
zvolený
zdálo
Motorola
##anka
##play
výher
stoupá
koncernu
Steph
Kučera
ceremoni
prask
nádrže
pta
obrátit
zep
Prague
úspěchem
viol
cítil
##érou
Londýn
tip
soudn
kanon
kyberne
take
##eced
Baš
Frankf
motorů
stisk
Proz
pátý
##ývajících
rozvíjet
republikán
patro
Podstat
stár
prosazuje
##bost
vědo
edlo
vyšetřuje
místopředsedkyně
Generální
Kut
##amos
snížila
nízká
##lynulo
Pch
skok
##řízené
Detro
##vím
##měrné
derby
potenciální
žádným
existovat
Jmé
chvilek
Koš
sklád
Service
příčiny
jeli
##sz
bazénu
##antně
prozraz
přírodních
Nato
ovlivňuje
##uge
představy
kulat
organizac
sportovn
Šla
zasáhl
petice
držení
trénovat
##čtější
znamení
Trans
sná
##řská
sep
##kostí
Nevě
prodalo
165
##vaní
##wards
vysokého
Americká
law
vyzvala
prezentace
Zná
##if
pivovaru
economi
průběžně
manželku
AB
zdravé
##lerová
jakousi
##pění
předvedl
Jednodu
##hmen
vyhlásil
ef
přihlí
úvodním
prvé
neofici
spoje
senátorů
Us
odsouzení
##cova
samosprá
##ental
called
základním
Hot
úsměv
takzvaný
Langer
startem
vojenská
Britové
židovské
kompletně
174
účastnil
vrstva
konstatovala
rky
Tvrdí
Microsoftu
Brown
Československo
obchodním
audi
krvi
zmíněných
kozen
soudkyně
odchází
Lotyš
PO
##iel
spisu
Vysočině
Centra
Zlína
##dili
Eliš
Brabec
budovat
zelenou
##rodu
##att
Slunce
Národním
ničím
sebevraždu
Bry
##zec
překlad
válečné
zadání
##zovali
asem
dluhopisů
vily
##CI
Zm
veřejná
Škody
Úsvit
nevad
prázdné
kamerou
soll
Fore
230
Smí
##ecto
šampionát
investici
níže
strojí
zkum
Ša
recy
pouhé
povědomí
soustředění
diam
Tabulka
##alth
Čeští
nominace
Valent
teoreticky
##řte
esc
##gl
citovala
zdy
Patri
##louvá
zničit
dezinforma
Ken
Zbyněk
přiměř
snahou
paliv
zeď
##nity
Kope
životo
střelec
kalendář
sý
sanctions
schválili
polé
cestuj
##skak
Práva
notebook
##rudim
Nebude
Maduro
páte
##dací
##lémech
požadavků
skončily
koncepci
umístěna
Ern
marat
Záleží
obyvateli
RS
Paris
kapitál
opev
hmoty
##čat
komisí
cestovního
campa
col
testů
lidského
Data
Pokra
nila
zasahovat
domech
chvilku
Mia
oranž
potřeboval
dam
skleně
Galeri
uvedených
kabině
##utnat
daný
palác
fem
odrů
páry
nuje
annou
Dostál
sedět
italský
vydavatelství
soudců
otevřena
chemi
1930
viděla
koncov
policejních
##EP
vesel
viru
erstv
nezmění
##imbled
připravovat
čtvrtém
vyhovuje
##isek
banko
obhájce
myšlenka
nepom
Design
##dělo
city
zúčastnilo
vstoupila
vlož
Minim
##strace
##rovým
control
##níme
umělé
nouze
##ény
##itelnost
řeka
působila
pohotovost
krav
obličeje
značkou
pomohou
představitele
pozvání
přislíb
domluvit
Podnikatel
jeví
Uv
aktivn
utrá
Peti
these
slovensk
proté
problémech
přátelství
komentář
plave
##emos
prodava
nejvýše
##tním
##anová
pochopení
zklamání
sál
prodejny
ujal
bři
protěj
vyhraje
podepis
dekora
donut
běh
open
Nejsou
uspět
organizátoři
samotnou
generála
ušetřit
usiluje
lístky
rezignoval
zaměřuje
musli
nazý
##para
##stel
##ency
##jímají
mnohých
##ovité
Výji
ekonomická
Fro
Celé
uher
##meňte
Staré
Dlouho
Janda
platnosti
Rodiče
ČD
Hradu
aspx
##lout
učinit
odvola
Robin
přibližuje
etapy
odlišné
aktiva
úspěšná
##žného
přeroz
stránku
myšlenku
Baj
léčby
obyd
žila
mix
letectva
nejvyššího
dokázat
Procházka
Dun
dřevěné
odstupem
##jme
Sá
##lovým
přidává
směřuje
uzavřené
protá
malém
many
žáky
##sím
wa
##itelnou
Lesy
Městské
finančním
konají
Kamen
Past
kucha
##hůru
einem
argent
nastat
Myslíte
Francouzi
##tnov
jízda
krvav
reagovala
1954
Tv
##bru
nejh
##stice
průzkumů
nepřetr
##prese
převaž
hace
Soči
##oní
přestávce
Rev
analýzu
kancléř
spojence
Slune
soc
##px
##list
zemětřesení
poslala
##etnam
nož
nein
modelka
zaveden
hráčům
spánku
zdát
zle
venez
Fox
Esp
uš
kriminality
zahaj
uzaví
ambulan
Stad
Život
Human
neon
##líků
podstatn
##antasy
270
obrazovky
urg
nedělní
pracující
##išť
displeji
apar
ubytov
subjekt
skli
style
relev
svátek
posel
zata
##lama
Cra
##sková
Hude
déšť
kok
Investi
slavný
vsi
Fed
dostatečné
Čtená
ČV
Philip
Udá
##lelo
občanských
nejoblíben
##än
přístavu
Democ
řešili
Are
Chinese
odešla
vypadají
##pele
Beroun
pozdrav
millones
vytrval
prohled
day
delegace
přispívá
##atě
lži
##bauer
107
týdnem
mole
Profesor
patřit
vybírá
##echt
technického
dobrých
##FL
zmrz
vil
Kniha
proch
Prince
shrnul
většího
##tovat
útokem
logické
##sadit
moskev
základem
mono
deficit
##istických
legislativy
emise
zabít
Vondra
kruhu
epidemie
novinách
přítele
živí
##wald
edstavuje
because
aktivitu
mozek
jinému
nenávisti
pražská
scéna
neobvykl
##řednost
kanál
typické
prapor
nežád
Bezpečnostní
kondici
rezervy
nepov
neděla
policistům
##vard
stři
##ladit
úzce
zadržení
obrázek
Večer
Smr
##tce
sak
ša
žádného
řecké
hle
prodejce
acuerdo
nezav
zraněním
závažné
reperto
##loup
využili
přímá
1936
nimž
Lew
Sti
srozumi
kriminální
Náchod
##tickým
Estado
katastru
zkušený
statement
přidě
##AC
jakožto
nekončí
oslovit
##cek
LI
mec
Vsetín
##zą
Kraus
hájit
odhalit
##koji
##ierung
##ženými
zvládli
Olga
Sala
přečíst
zabr
Náklady
chodce
Jednak
vyjadřuje
navázat
##říčí
princ
asov
osmé
fronta
koncertů
zala
efektivně
brambor
odtr
jazyků
Zápas
Love
válek
Dukla
head
Jura
podnět
Výrob
##aria
##bol
doplnit
##držet
lila
kádru
##ičních
řetězce
olympiádě
Bloom
osmdesátých
Publikováno
Zvý
##cio
vší
Peking
Roh
dži
otevřela
předchozího
##isku
Posledn
Viz
##lební
167
jádro
Foreign
wid
bale
přestal
španělské
Wood
##mag
##jezdech
obrana
##uridad
Sep
Zub
Mikuláš
##vrdil
zřiz
pomáhal
##aver
Teher
stupci
##ňujeme
##ensk
mam
nikam
Jejím
hraz
stnosti
itou
školky
teplotu
nápady
prokázat
##tember
bojovali
##29
posádka
trv
Dolej
##nového
##lag
kyt
##nutý
ik
přel
Brou
rodinného
prona
##luva
##řídili
nastoupí
##trá
proj
německém
##zvou
kuchyň
neko
spla
postarat
##ка
Ruská
řemesl
forces
hluboko
vztazích
extrémní
plí
královské
bilanci
přijímání
nadv
náhle
dvora
Lavrov
Mirek
iPad
##Don
##komi
Takov
Vac
straš
Sol
odehrála
##clan
pravdy
angličtině
Nejčastěji
guer
připraveny
srdci
Ruský
Opak
Brzy
Tip
korej
##pto
marihu
##orum
černý
dosavadních
tiene
nejvýznamnější
Arábie
někdejšího
##cke
dráze
problematice
know
##stvem
pevné
postavou
schopné
jednostran
nadstandard
loaj
vyvolalo
ČVUT
##lely
Výzkum
nestane
##lop
Skuteč
šťastný
díle
monarch
##MB
vlakem
zapojen
kategorií
rozvěd
popularit
vstupenky
Kev
kostým
Švýcarsko
poznamená
##ool
same
kapli
dospělých
##okej
##asing
voličům
##ioři
radši
Kní
##istický
Liban
zl
takzvaných
prohra
převzetí
spoření
Konf
Problémy
vězni
uskutečnit
neje
hore
zaměstnavatele
požádala
Celou
závisí
spáchání
buněk
zdvoj
stanoven
Ent
##feld
Hájek
1957
ziskem
centimetr
ostud
##nickým
##eth
stáhnout
Navrátil
lží
Vyšlo
spisovatele
Doma
nevidím
ležící
Přerov
zvýšené
zachra
příště
žurnali
##zujeme
##nuly
##ivo
##átcích
##inné
added
jakési
Schwarzenberga
obvyklé
rovnová
štít
Caro
##mail
nahoře
ohrožuje
gas
dovnitř
##TP
shromažď
tendru
##ádní
##harmon
##anské
rozehrá
Magist
Cameron
nadná
podíleli
nedostatkem
patra
##ánského
obrazů
zeptat
pravdou
ohně
Hruš
majetkem
##hrát
spoluob
Doležal
##čnice
trendy
sedmé
japonské
stylem
strikt
mask
tajn
##mysly
Pů
gará
vou
obrátil
přežití
Kari
police
Indi
mysleli
Secret
půjčky
PhDr
pódiu
vstupem
Tímto
flor
stihl
Kremlu
nepředstav
nelíb
výbuš
soustavy
##comu
meta
Soudce
základy
písničky
zasta
Rož
##veden
hypote
Cry
high
Univer
slavného
With
nárůstu
divok
##raná
##nojem
podvodu
Koreji
developer
pamětní
přijet
##celi
Parti
přístrojů
předměstí
schopný
obrazovce
tisková
Pravděpodob
Bratislava
Gas
##žuji
předloni
mláď
##wied
analog
lásku
##álen
Power
posouzení
uplatnit
ujistil
výjimečně
magne
výslechu
probud
320
Přis
afghá
povíd
vážná
poslouchat
Lom
nastane
invalid
##cks
##rované
##kes
Celková
##NÍ
překladu
VŠ
motivaci
##žností
bratrem
zadržela
##švi
##erie
Not
krátkou
##servat
skl
Frid
Agen
podezřelý
odbornou
červenou
respektu
světem
vytě
##apix
##tahuje
##Map
##novém
nehled
##ovanější
##oky
##erpo
kandidoval
úvěru
čehož
situacích
bavor
zóně
hrálo
jíst
znásilnění
##ckon
knihovna
What
##stění
Kolín
centrá
Piv
výbuchu
Jméno
Fanou
Mig
##ronavi
Petrov
platformy
##rien
crisis
##randa
Octav
##vast
záři
hlášení
##ting
uskute
necelé
Sní
cizích
Brněn
očkování
obrně
Prostěj
nohu
Američanů
přibývá
1937
hotovosti
##ftu
##sků
provoka
zpoždění
unikát
Fire
##ávka
##stán
##vacího
potkal
##atika
št
##100
seděl
sdělit
takovému
kanceláři
##šeného
čínský
vytvářejí
dostaneme
demoli
realita
výhodné
##pak
edem
##ronic
akční
protiv
##livou
továrny
Dět
##menut
vytáhl
señ
Ton
způsobila
108
pravicové
edt
běžného
strážníci
Fon
počítačů
Byd
##ahuje
zvítězila
procesy
Victor
sedmnáct
personál
nejedná
place
smo
##éž
délky
dk
zákazník
spotřeby
kory
Hans
Mezitím
chovají
lanov
klidn
dobí
přízemí
Alt
strukturu
##DI
žádají
##burgu
zátě
Zé
Ostatn
prodejem
dorazili
požadovat
Hlasování
demo
určení
orientaci
omluvil
strážníků
Lep
Vodafone
##rag
Otec
představiteli
koronavirem
cou
zvykem
nakupovat
Ludvík
druho
obyvatelstvo
dveřmi
převzít
Ref
praktické
porážce
Českém
kno
nejl
pust
##hují
bližší
##ecu
obs
něčeho
103
Potřeb
ztrátou
rétor
LE
skvělou
různě
reli
Strateg
Makedon
Popu
plném
hlasem
##oung
Litvínov
announ
asistencí
##orce
stabilitu
otv
dobrém
##roba
Doktor
##ome
učitelé
vnitrost
odškodnění
Podmín
vietnam
##icz
Schiller
cov
##ánský
dostupnost
Plo
##advacetiletá
krásný
zkrach
Econ
Následující
prezentaci
hazardu
vzpomínky
##hing
##yka
159
Dama
sym
celkovém
silami
##mak
##slava
Oko
záznamy
holky
pisto
francouzská
fotbale
zbývající
Belgii
hokeje
Games
posunout
Ira
ipraven
kladu
zachoval
AR
depres
verdiktu
Světového
##zef
komod
francouzských
born
finální
táboře
nepodpo
##ťte
váhu
širok
vyvolala
Wars
nejdra
Report
1929
##work
ochoten
vce
akté
Fle
##její
verz
##inn
106
##vědo
inteligence
Správa
bis
##onské
celková
Faj
studené
Dyna
Dopl
občanského
Schu
zákoně
##linu
Central
čistý
spotřebitele
družstva
armádou
transakce
Phi
jdu
##dol
multimedi
vrstvy
napodob
příznaky
Barcelona
##ander
postižených
Zám
klou
zaujal
příjmení
organis
mnohokrát
zali
servi
Time
Firmy
včerej
záležet
##chý
vyko
náměstkyně
##nát
Alf
zkumu
SZ
nepovedlo
Hudeb
PČR
nice
všemu
Kadlec
##knutí
##ected
kanálu
propagaci
Barack
interes
slevu
čerstv
táh
pořádek
fau
vyrovnal
agreement
tar
Spíš
skala
zvuku
##lárních
Otázka
poskytne
ankety
Strakon
Cre
oficiálních
##eton
parkov
předmět
Simona
pobav
chrámu
privatizaci
Hora
Ostrov
užívat
##ję
nevědí
nepřijatelné
nemocných
relax
Moravce
dopustil
##árny
šílen
produktiv
otevřených
month
##šeným
vyhově
##vel
1955
večerní
nerozu
zlatou
vizi
černou
širokou
##dav
předložit
příchod
veškerou
historick
komiks
etap
Imp
zádech
severně
Brazílie
orienta
Revolu
Švý
výkonný
stna
Teplo
Hradě
zadn
neuděla
BonusW
##části
Politik
vyn
hladinu
Současná
number
hluboce
svahu
vyměnit
stem
prostran
prodávají
podklady
předví
1905
##ánů
sčítání
propuštěn
##osloven
webové
Havlíček
ebuje
Antoni
úpad
úraz
SIM
východním
Filipa
Amazon
##árních
označením
Mem
1900
návrhá
výskyt
##ladě
uzdrav
realitu
##yo
jedou
technikou
slovenských
Hongkon
##ms
hranicí
##vanou
jídelní
Vratislav
soukromého
Dlouhodob
hrud
dívek
horizontu
patři
šedesátých
221
vyjádřila
##lejte
stavě
zahájit
Prime
považována
zúčastní
Hovo
zahrát
kardin
##arov
stku
##enem
odděl
nedokázali
odo
končet
##znali
zraněn
pobře
atentát
Bang
nejkrá
vzhůru
Alber
Luž
Stá
osobou
Kö
Vzá
zdravotnických
slušně
otevírá
Jirá
volantem
tlumo
lidskou
pauš
dárek
##uch
##itá
pozorovat
rozb
délku
##fol
boho
Reag
edstavitel
PD
průměrně
1935
korekt
syny
založili
Světové
Československé
zvládl
socialismu
příznivců
##ývalo
záda
důchody
Federa
jižně
chil
zajímavých
hvězdou
##likovat
strý
##řízena
institut
##pali
##unkční
##In
Žant
##iga
teroristy
##PC
Poku
formátu
krásně
odvol
káv
##kovaný
zaváz
Shar
##well
mechani
léčiv
přesvědčeni
imigrantů
Klára
104
zce
popul
venkovní
gang
##aut
##ات
##ujícími
inscenace
zrod
Tej
##namená
##eng
obává
##hodnou
KHL
Št
odsoudil
##efek
Moscow
historický
Vešker
nervy
##cup
neřekl
Ever
##dějí
##guay
manifest
Nejed
prevenci
nemocnicích
stád
dejte
Berg
##ronavirus
konaly
##ли
popírá
112
Sum
jakkoli
magazínu
doporučil
zpravodajské
pyrotech
úniku
hospody
##OK
##etta
##izoval
##del
Odpo
regionálních
Vyplývá
bílá
Center
Deutschland
výška
umět
dohledem
vězně
Saudi
ipad
Předsed
zvol
##jezdů
úkolů
Frýdek
pováleč
zájemců
městy
kontrakt
PPF
##clanku
##čtyřicetiletý
pozměňovací
plynov
navyš
dodava
blb
##ector
silným
elimin
nevydr
Präsident
##stoupily
##čům
slávy
##zz
provok
dokumentaci
nakažených
Inform
koruna
##ksho
hostování
zásahy
##idas
dopisu
Bať
občana
okupace
předání
nepla
##tero
##esporu
seznámit
Sním
vyšším
trolejbus
Cli
##amo
kardi
kandidaturu
placení
vládnoucí
mandátů
vydalo
Leh
republikou
signali
označují
pojišťoven
vzadu
rozliš
vodem
##kula
reportér
příno
Juan
##lady
##atury
Policist
Policejní
##ures
##ilton
##činí
IB
##kářů
řeknu
vzrostla
##ching
##imen
##sař
1200
##itelnosti
eko
hrozbou
gymnázia
##cují
přistání
servix
opin
touží
divákům
##anec
##enárist
sav
##káni
pololetí
správnou
Student
Čili
##obra
vyvíjí
Rekonstrukce
řešil
##likace
kolekce
svěřen
církevních
současným
##etou
schopná
pej
popisoval
Francis
jímž
Třinec
králem
připraveno
##bes
Kazach
##boli
##ohat
Argentina
##rance
1932
pods
jednáních
politikům
false
Ras
mzdu
trou
Kara
rka
Švej
idclanku
Christian
##ovců
připojil
akademii
lázeň
Věcí
AN
záření
srážky
sobn
hromadné
##lův
brusel
instalace
schopností
odpovědí
jakými
filmových
jezdil
wurde
Fl
shled
gril
srazil
okou
##berk
vzbu
kontinentu
edo
plot
velvyslance
přítelem
Svaz
rozhovorů
##váním
následuje
##vedou
začínal
##istická
smů
ujišť
That
##mad
editele
vašem
iniciat
##65
##dami
počítači
##organ
neumož
Nechceme
##klí
nabídkou
Kvali
##jních
eni
Nějak
Album
provozovat
Montre
preventivní
chlapci
klientům
registra
vítězem
místostarost
Bio
názorem
sluneční
prokuratu
bral
Leb
##ťák
rally
sportovců
toky
špatného
Jurečka
recent
Druhé
nákupy
Řád
Úřady
ukl
pracovník
operačního
vyha
rozsá
kosmona
kdykoli
##iger
nejmladší
anu
Nejdříve
nezávislých
poplatku
sedmnácti
zážitky
RAM
docu
##aks
##entn
activ
uprchlíci
HTC
##ovanosti
právním
neuvěřitelné
čaj
tendenci
proběhl
##bury
People
kapitána
Dostal
Aktuální
stávajících
RF
nn
představa
Bradá
podrobně
Mareš
zakoupit
image
tranz
according
Existují
hovoru
##talo
##ytag
portugal
##iten
##šle
výměnou
##tých
žádal
základu
vídeň
dělala
jimž
dovez
hnutím
##lením
evropském
orgánu
hodinky
Pech
pokusit
náboženské
nejroz
Jany
nastí
Stanley
výslov
demokraty
Vet
neuv
Richter
tažení
regulaci
tox
##grafii
##bour
Mladí
odsouhlas
potíží
vstupní
Blažek
AMD
Vrb
celoro
občerstvení
zpětně
podpořila
kupovat
prohrála
##stream
ovou
otest
follow
Gab
synd
##valu
##manová
ocení
##íl
rakoviny
##AMU
Phone
odvysí
starostou
pokyn
evropským
postoupil
slušné
odešli
vývojem
veget
rozkaz
border
hrů
premiéře
##pochyb
reklamní
pití
reorganiz
Oscara
hypot
##aroděj
bulhar
vstoupí
##vola
ukrajinského
oceánu
Žádná
vyskytují
##AT
demonst
AfD
kapitálu
sestři
stovku
kolu
odpočí
##ono
serví
exkluzivní
věnovala
xeno
trvající
Slovenské
Kristý
Ekonom
Mare
jižním
teorii
sálu
připouští
datov
Zpě
rovině
Krajský
Live
##rozumění
Sci
Sub
##hraní
lyžování
fascin
Según
Antonína
VP
Byst
Šumper
Pchjong
nedojde
církví
asy
Jedinou
nehodlá
##ómi
rozbit
odhalení
##dela
matce
krásná
Hov
Římě
##ró
lesích
kategoriích
podě
závazků
Dalších
připojit
spotřeba
lh
manželé
Life
koupali
Sus
nepůjde
provedla
##ść
##haus
krátký
souhlasil
informačních
faktor
##těžší
výhry
takzvanou
vitam
vítá
doklad
označit
Prix
Odmít
Jihlavy
nechybě
hůře
nepočí
Maláčová
znemož
dával
##říkladu
svobodné
expli
##emy
Abra
##číně
vývoz
ÚS
středověku
##wski
podtr
grav
Zkou
Vietnamu
producen
zahájena
Počí
skvr
šetřit
Stahujte
Pohá
neúspěšně
opoz
nazval
berndt
habe
Vej
dokončit
národnosti
návštěvníkům
freytag
přehlí
atra
kouče
##liament
Gali
Černá
zbraněmi
##číte
Davis
ER
Oskar
mluvili
kudy
Dallas
teroristických
koupí
##borat
##běžně
reforem
##lug
Korej
aerolin
těžkých
geno
##mdesáti
##áren
rakouský
porazila
Současný
kody
1933
Podobný
hospitaliz
polského
Welt
##zová
rejstří
dvakr
Starostové
Best
##ičů
poez
veřejností
vhodný
považoval
Zdravot
##cový
Demon
beru
vet
vytla
výjimečný
bázi
##alista
těhot
where
líbit
jela
hojně
hledal
protikorupční
alar
papr
zás
vesměs
atmosféře
pošta
agreg
Rozs
Dru
##louží
Středočeského
splnění
##tina
##emu
##štěný
dluhopisy
informovali
nemůžete
Pru
prodala
přežít
tlou
nemohlo
Multi
soben
press
Vino
##kultu
##třeb
estn
náležit
dodávek
projeví
špatnou
##iffe
##riana
nafty
##irm
Leží
založené
obžalovaný
Budete
##ementu
současném
Karlem
##zek
příčinu
energetiky
hudbě
společných
Americké
dluhů
směrnice
hudbou
vašich
upřednost
údržbu
právu
průměrný
obmě
ovac
zklid
každodenní
Karv
částkou
Premier
Download
##sie
Bohumil
Mail
zkoušku
Automobil
následujícím
fr
jazyce
nechyb
##livější
nur
chroni
motivace
výklad
##skách
pomal
poznatky
Besky
##ěv
evidenci
neos
##ete
chleba
Prokop
zdánlivě
ústí
kopu
##štejn
Zbytek
porota
Turnaj
diskuze
##vů
##řelo
daného
proží
sist
schválil
##žeh
spoluž
spik
vyvě
##OU
fit
##enko
154
AG
eru
vyvinut
Rang
##ózu
##bility
##bala
postižené
##totož
volných
komfort
Evropou
##čině
Volby
Liverpo
ekvapen
Obv
umístil
svěřila
Wed
pump
jazykem
personálu
formálně
##akes
aber
diecé
Michálek
interview
Vegas
učinil
##hart
účastnit
ptáků
valy
Nejhor
nějakém
staršího
Vltavy
přetrvá
##rado
Chlap
Security
##vili
paragraf
118
munice
dív
otevřená
stroji
Reb
##hard
obecní
hasta
##odem
napsali
pix
izraelské
soboty
##ział
nutná
Stanislava
tvorba
Finsko
plukov
dělost
anglické
Henry
decision
##andal
Lov
retro
konalo
##arden
neset
ČSOB
##čtu
investorů
##plň
Třebíč
##hostej
Disk
aduje
Vytvo
##oday
výhrady
Zelen
seznámil
##rada
doplat
českému
přiděl
Větší
prohlub
Bl
##zovala
##íně
##ties
screens
ptát
dolo
diagn
Kno
korupční
praktiky
Ober
##plej
política
russischen
potýká
šéfka
Jersey
voze
litru
##zemní
cenné
Německá
Dokud
RT
probíhající
Hyunda
listů
ovlivňovat
večí
hrozby
##stic
ztrátě
##vený
Pape
##ávek
##eck
klasických
Blue
stanovena
nenápad
Svatop
##ics
novější
vysílá
##fan
##aky
zálivu
chodili
zre
##hodl
farnosti
určitá
pochopiteln
Unter
shar
poznal
samotném
Eduard
Syr
technickou
fuer
hym
integraci
severním
parkova
Opava
bratři
Hill
##nikov
nejs
##árna
vlajky
NS
singl
##zejí
rubrika
absence
důležitým
Law
polský
užít
Petru
Camp
Wel
návod
poskytnutí
styli
Víc
množstvím
##čtyřiceti
Fotbal
rekonstrukcí
Gib
senátora
ciudad
nedok
edv
vnímání
úplné
umělce
porce
##hři
zpracovat
pout
kapsy
Fakultní
zastřel
raketa
Zastupitel
##zka
pohrani
srážek
irok
výborný
Vlastně
lali
sporů
odví
Marta
historickou
spotřebu
##roví
Hamilton
demokratických
##tové
Šab
zákrok
útěku
650
before
dvojí
##oné
##tivá
114
zaprac
bojovníků
podepsali
##ťané
DPP
Metro
popular
konu
červen
nakaz
dojmem
Východní
tísni
proměnil
jakýsi
##aki
uvažovat
BY
Sek
Seri
jíž
nezbývá
Ferdinand
uvědomuje
koupili
informacemi
novinek
distanc
Odhad
##że
vystupovat
flexi
zády
žijeme
Váš
##nikem
##konoš
pracovním
Zla
dvůr
Doz
##rních
jad
Studie
onkolog
Novo
##ungs
Jelínek
dostávat
drobn
opustili
##čína
rii
##adlem
možného
zahraničního
vycházet
nabídla
##afri
pohrom
elektronick
sá
Vlas
záchranného
##icht
formální
mafi
pohlav
general
##rovnání
katolické
Germany
lsk
beli
##ivnější
jihovýchodní
volném
##nel
odleh
##nego
činit
vybojoval
Čunek
hokejové
Ředitelství
jakkoliv
##rostl
zápor
##káme
coopera
stáli
peněžen
Boží
zařízeních
novinku
snižovat
##říte
Republic
##hrough
##hodu
různým
ples
##prodá
pokračují
##cú
Steve
odchodem
revit
podává
podzemní
##68
pustili
zvládne
vzhledu
##ladelph
dráž
Lidi
úrovní
pohov
##head
##zik
pravy
skvělá
klesly
Trav
otázkách
169
Otázkou
zodpov
činila
Kratoch
innosti
##říže
možnou
Benda
##arios
inst
konceptu
SPOZ
tlen
launch
##trem
durante
důkladně
středního
útokům
převrat
dluž
klasický
obtížně
sběr
##zur
##king
##idně
Masaryka
povzbu
153
ničeho
kritiků
prava
vládního
drobných
##parte
vládnout
nezajímá
##rův
pravomocí
##tara
gólem
eje
Čong
přítelkyně
Turkish
##alan
ukrajinských
vykonávat
##cident
médiím
Hynek
vzrostly
Trenéři
smlu
klobou
éry
##děly
nenávid
Romů
going
ovoc
Feb
koleje
zasvě
úlohu
Nus
věnují
opustila
ostrovů
sešli
písk
ese
Nejvíc
##dh
##brali
slibu
balíček
důrazně
čeledi
náleží
Zoo
##dím
Proces
Wit
hezké
Předtím
lepšímu
softwaru
vlák
desek
##lády
přijela
přesou
nezísk
modelem
vycházejí
skutečnou
Además
mecku
kůrov
železnice
ostrovech
fanouškům
sluš
fav
členům
particip
kompletn
dokaz
kameru
zamířil
Skripal
scenárist
státům
Mohl
##ils
Philadelph
sobil
konkrétním
padne
soust
uprchlíkům
kredit
zot
rodák
uvolnění
prohře
velkolep
vzdá
Krná
faktu
vejte
poskytují
##kovaná
celoži
Corea
Povodí
profese
komunistického
##zak
potřebovali
##nother
##zpo
docházelo
##líci
věznici
##títe
užit
Milion
bubli
Petříček
agenturu
televizním
kritéria
##richa
menším
##arová
Anny
threat
Free
sklení
staletí
lídrem
tramvají
podvoz
skrývá
Foldyna
některý
předat
pokusili
Aero
youtu
pozorování
sledují
##hodná
Kriminalisté
wür
poukázal
Office
##ujme
úředník
##novou
##řování
účastí
Silnice
Členové
odhalil
menšin
služební
##fr
##cl
##ánských
nesouvis
armádní
mléka
Nab
Hein
konstatovat
Cab
platil
modlit
podívejte
1928
faktory
ulicí
dárky
109
fisk
##EA
akviz
##ają
##zované
ade
Skal
Říš
Troji
světovém
ovatel
podpisů
správního
Zpráva
pur
Vládní
123
otepl
baj
itosti
Televiz
Paroubka
schodiště
Třet
Kubera
působící
navštíví
zveřejnit
dil
Hels
sbírku
mince
vyšetřovatelé
Konce
delegátů
nohama
Martinem
weapon
Itali
Fry
italského
Bílý
bolšev
sňat
mistrem
nepříliš
Estados
Správ
dinos
Pavlem
premiérovi
slavnostně
brexit
odva
krajem
8226
Došlo
dut
zdravotně
náhrady
spuštění
mladist
##skobud
nemluví
bomby
tvrtlet
##ráty
##ivá
akc
127
podnikatelské
kapelou
lech
přísně
Band
zw
Zelení
schopny
čtvrtou
rafin
lala
chtělo
Global
##řídka
využitím
However
Deutsche
##maci
napjat
takzvaného
Cht
kliniky
Parlamentním
nevlast
pravdiv
oznámili
Jord
##činu
##ránilo
##orepubli
##hvě
neho
vlně
letošních
hardwar
million
zanedb
ukončila
Matka
Bundes
prota
##ázejí
předčasně
organizátor
hrozba
poin
měny
prach
konfig
patrn
zařazení
filmový
##šelo
vině
الم
vnímají
Nemá
Jmen
Gaj
vnou
zájmem
##louvat
Prote
Hyundai
##urtu
Klat
někým
torpé
Aktiv
kinem
trvání
Obvod
posunul
strojíren
Cít
Day
shodují
Nevid
Mirka
pořadatelé
rozšířil
zastaví
letů
##stající
##zující
kvóty
sešlo
Mount
kluky
##psat
##ezpe
##ball
Vídně
nastala
##inační
krajská
arog
životů
odstoupil
postrá
SŽ
##éle
990
##chet
zapad
big
korpo
červená
výhodou
hluboké
Apr
##right
##tivě
UEFA
noch
požadují
Zaměstnan
bater
##edie
poruchy
zy
pady
##ranian
##žba
mladým
stanoviska
requ
Chem
Mládek
nebojí
##álními
voják
napojení
rk
##tober
celkových
Deset
poroty
##inského
cizince
výraznou
proru
##lky
zemřeli
vlastník
Islami
svrch
##meňme
potvrzují
##škr
Chrudim
Bůh
klíčový
konkrétního
výjimku
##žaduje
jedovat
střílet
tanky
videok
expozici
Libyi
##hlejší
střela
##chroni
návaz
Lak
exkluz
krajině
then
robci
Kultu
dívku
zaujme
vnitřních
##íka
nedoz
Ins
kompromi
bezesporu
Chebu
kanalizace
přesvědčený
tvrdila
##ungu
vyprod
México
pus
bývalou
dokončena
Platí
soukromý
Příbrami
##telnosti
Začíná
lhostej
##raději
nechává
známým
Babišova
podporoval
##anům
does
zvažuje
Naproti
Deník
##ecký
zahájí
Doub
nenabí
všiml
náročný
legendy
position
Břeclav
tory
samostatn
člu
třicát
Výkon
střelou
kongresu
Zra
##mostí
##uli
##úbli
komentátor
zazpí
textů
##esen
Lub
průjezd
Hollan
ochranné
nervózní
umístěn
##ňovaly
dočkal
vlastníkem
nevznik
Manchester
sněmovní
Raz
daňového
Cong
cyklus
zate
přešla
stanoví
Pát
čerpat
páru
Jediné
mapa
jime
Soutěž
kriticky
Over
163
Duch
hust
##lini
bývalí
napojen
iniciativa
##PA
137
spotřební
Vondr
##cur
kontrast
Cro
vystud
Blanka
milión
geolog
málokdo
velení
kytarista
##pala
děde
trestně
ATP
##řicet
Luft
geni
podmínku
stání
vyplynulo
společném
Umě
eroti
Laur
Kdybychom
trhů
Cons
FIFA
zahraje
výměně
hotov
560
##líková
důkazem
opakuje
##lok
former
hospodářského
Pražská
America
Pec
##yn
poškozené
rozjet
Místopřed
SŽDC
##veru
nakl
ručně
Čtyř
hormon
Víta
zeleně
##vedlo
křeslo
moderního
Musel
Kter
embargo
##fej
##lisí
organismu
mapu
odpovídat
pokladny
soutěžích
rozměry
likvidace
hokeji
budoucího
Ninten
efekty
prezentovat
zasloužil
Hrozí
původem
chrám
fou
sportovního
##temp
muslimové
deli
tyč
zaměřené
papíru
zahájili
##čež
složil
dovolen
Prostřed
čínská
logi
popsat
zeleniny
otisk
náb
pravděpodobnost
durch
způsobené
##zajímav
Ško
nedařilo
Gon
domo
##čeni
##rovn
Zajímavé
Režis
weiter
navrhnout
nepřítele
##otera
obsazen
111
uspokoj
Austr
vrstev
PDA
eby
vypořádat
Afgh
vedoucího
##rují
finál
##arth
vhodná
jakoukoliv
##jížděli
zhotov
korid
##eho
Stru
otros
##hodli
telefonní
budovou
přidala
obyvatelům
##hlédněte
léčbě
udržovat
akorát
publikace
spravuje
##tko
##čího
konzole
##EG
jaksi
Veliko
dáme
úvěry
aplikac
průzkumy
vztahuje
pracuj
teroristů
zbar
jádra
přizpůsobit
Oper
Smart
Dneska
Novou
mluvilo
##ets
Žantovský
rodinný
ideologie
jedince
sobit
Hlin
čtenářů
náročná
sportovci
titulem
obsadili
Kova
Gua
vazbu
Vystudoval
pokročil
křižovatky
Kovář
obchodování
##rná
podávat
Vilém
obnovy
represent
##lema
EK
##HA
výměna
svátky
jub
##čice
kvar
vlastními
1934
##alls
důchodů
Pamat
tuzemsku
stimu
závazek
Renault
eva
sedmdesátých
Divadla
záhad
natož
dráha
magistr
suroviny
oil
nezač
Černé
Hrade
TS
Koalice
chut
zapojil
krádeže
zkres
##loha
freeware
##ták
chyběl
##antes
bilance
ble
145
ses
God
spě
spát
Bod
##iků
nejste
mast
Wol
zčásti
američtí
##naté
If
drav
svaté
utop
##mující
vysou
myslu
Santa
##sii
zdravotnictv
Zimo
edky
##plod
kaza
1925
servisu
anonym
nař
večeři
Iraq
napravit
##advacetilet
ústřední
rep
##ánka
opačném
inn
##ief
plaz
alleged
propagand
Muham
##hodně
střelu
##ráže
dřev
tila
##žár
kolena
vychy
##upl
280
edstavit
modul
udeřil
společenských
obsadila
Business
Pev
snow
kultuře
dopadla
1924
směs
dozvěděli
##hora
Spousta
##ckonců
##nském
středoš
šířit
celebrit
BonusWeb
nábytek
Hof
záznamu
##tahu
infar
Norsko
utkáních
stoupl
envi
domn
místopředsedou
134
Jihomoravského
WTA
##ovatelné
zvýšenou
postižením
Najednou
cibu
relations
papeže
osady
zimy
konstrukt
##Listům
německým
vzorky
chápu
profesorem
prvolig
##rární
projektech
Columb
protestů
plzeňské
Kvitová
##nace
připomínat
Krkono
pevnost
souhrn
##rním
Situaci
GHz
spojená
ekologické
##cast
Šlech
hladina
##mission
nevylu
Online
tehdejším
Scott
Barrandov
rival
svěř
roh
##hev
archivu
doskoků
##inálu
naslou
nesed
významná
Přer
##čeli
černá
zatčení
omezené
Miami
brněnského
hollywood
Hokej
posílat
vicepremiér
táborů
soužití
čtvrtiny
výborné
stnanci
Vyš
fungující
Mělo
##ision
fore
džihád
Ukrajin
poskytla
##čové
krátkém
Fico
##non
##iver
Většinu
devatenáct
preference
Royal
stanovit
křeh
západu
jejími
stresu
Prod
vyslovil
171
Taj
hrajeme
smutné
odráží
##hodnotit
##stky
vstupuje
##šoval
disci
zakladatele
dělostřele
##EK
prsten
chvál
křiž
netýká
běžnou
##šíte
Stalin
přidali
neschopnosti
žluté
Zbořil
ger
náladu
Dlu
leteckých
zavě
necess
velkému
ocitl
pohl
jednali
Skand
stály
nastří
uchazečů
uplynul
Wimbled
neuspěl
obchodě
technický
gay
Irán
obávají
absolvovat
Změny
124
Obje
ejnosti
jakoukoli
##lab
patri
Kana
prodě
jistá
Ústeckém
Koreje
výuky
starově
##ravo
##urace
potvrdily
koncentrace
kato
Ner
vodo
skladu
proměn
##SV
##rei
difer
117
vydávat
ED
neform
vyloženě
odbav
přivedl
Média
udělení
##ünd
dobrodružství
srdeční
Rome
vyprávění
vyzv
##tung
ruch
jdeme
Hur
MO
Hotel
výchovy
útocích
oheň
##oněme
Slováci
##band
poznamen
veškerá
bydlet
Okamury
ČSA
lenov
nenapadlo
SC
kapito
Andrew
pěve
poslancům
zpoplat
Staněk
osobám
přiblížit
leader
prostranství
##lovu
Šumava
Boston
pochodu
bojové
slun
táhne
uskutečnil
neres
Ťok
Škro
vyrazili
##řáb
vážím
monit
use
1921
##íku
##vapí
neslu
okresní
kritické
tuzemských
matematiky
Christop
xenofob
##manuel
Benj
odklad
pěta
zavolal
##hák
těžkou
##ours
dítětem
nedostala
##bri
petro
nejz
height
furt
neonaci
Depart
Zalo
##zory
hudebního
elektřinu
čtenáře
gramů
skrz
Alep
posílá
##něném
podlo
čtvrteční
umožnil
Pes
patent
firmami
Armáda
odkry
##letých
křižovatce
protestu
Walter
Podařilo
jednotku
Běle
Pomoc
analýza
spustit
pragmat
rány
##mentech
zabývají
hájil
trvalé
rati
hloubky
pozemní
remain
Kaf
zločiny
dno
nul
AL
apart
##ов
místnost
##táž
tiská
zesí
zkoumání
předložil
dosáhli
námořnictva
nápoje
Státního
infekce
Kamp
tvůrce
snou
zbou
ovny
oprávnění
leteck
víru
pochlub
stereoty
filmem
zklaman
Šeb
příchodem
legální
nachy
1914
plyne
Kauza
Pelikán
průšvi
dotační
nespraved
omyl
deváté
##esty
Magdal
úvaz
##buch
kabiny
upřímně
účtů
Zvo
celostát
saying
spojů
##ated
##ivy
demonstr
ověřit
##elov
chytré
invazi
nezávislý
římskokatoli
klání
##byly
Lob
##MI
autosal
pravém
Druhým
vystupoval
pohonných
ParlamentnímListům
##zrak
uzá
##position
Juncker
něčemu
stoprocentně
##opravdy
zakry
kamion
Čermák
102
##vacím
Pin
pist
##úhel
##lační
Syd
Vancou
sochař
logist
chemické
##chody
provozovatele
vynik
bohatý
pauze
zez
advokátní
Velikost
hous
stranám
##povědí
umístěny
Norsku
přihlásit
Chomut
##dle
středeční
podobnost
Luk
protektor
vyma
MŠ
barvou
palivo
Moravskoslezském
kade
projevem
změnách
generací
nedovol
prvkem
apli
čtvrtinu
dlouhodobý
Šev
rozhraní
##dáme
pokrok
##ceného
arabských
BR
pustí
##čanů
Ek
##ouch
osvě
zařízením
##hrů
přestala
považujeme
zásluhy
LCD
##plav
##ektor
používal
hospodářský
nestandard
Bot
prodejci
vidě
připomněla
April
ohodno
##rze
konkurovat
odvezli
##blish
##ike
##ctive
provede
elity
There
trojnásob
Jaromíra
versus
našemu
využije
Dist
Zpočátku
##toku
Nejdřív
fakult
rele
##imu
olympijský
Průzkum
##óp
přerušení
##omorav
odejde
Karviné
##lané
##lona
في
časté
dli
plánují
Inte
požadoval
dítěti
přestat
ovládat
Blízkém
opatřením
neschopnost
office
nepravdiv
##antu
odkoup
nálep
osloven
##nutých
Hospodářské
Auf
bitva
bizar
utrat
úředníky
rozdělit
Studenti
orchestr
##vacích
onen
zásadním
Nemůžeme
zpev
Hay
Sarko
vyhlášky
všeobecně
Libu
postoji
Umí
mořem
##vaného
ekat
Haw
potvrzen
nehraje
##štěny
elektronických
##žur
Vypadá
##teru
pásmu
##oy
pohledem
stojící
##ávna
oblíbený
Liberecký
##odenní
stejných
Nejsme
Hráči
##ming
uvede
dorost
říši
CA
sein
uté
##bun
##romu
Kongresu
turn
Divadle
frakce
##čte
výk
spojena
##ilej
Mynář
křídlo
odstoupení
sledku
Konstant
trůn
lich
zprvu
IK
disident
Metropo
bezpo
Congres
vynu
##řicích
srovnat
Tab
dramaticky
Švédska
nevyře
Ml
##čiv
vypadal
příspěvků
korespon
úpravě
technik
Iveta
obava
Masarykovy
##žíte
Koud
smyslupl
jezero
##nějšími
Alternat
ukázali
burze
Stone
neoček
zajistila
bomba
##asi
chuti
folkl
Gabriel
pozvol
prostředek
##lerov
rozvá
cestovn
Porsche
Stockhol
##nas
pleti
##lánu
magazín
##telným
157
přihlásil
113
veterinární
##nor
nakládání
Abychom
##ác
mechanismus
volá
Monte
zařadit
domku
správná
jimiž
řaz
indepen
děv
davu
Chicago
Pochop
##čící
##ige
##gest
ČSS
Berdych
přijatel
Probl
##beru
Gustav
paláci
election
candid
strategické
zkušební
##átníku
podzimní
polojas
164
volal
Beck
bílý
GT
##čníci
##orium
spořitelny
tvořily
Pacha
gram
accus
##orka
značnou
##řící
samotných
Židů
operátor
čekání
psi
##MT
Bureš
hlídka
klima
známou
fotbalového
úvahy
##ňovou
##ري
sejde
zajímavou
##víme
sněhové
##cor
tábory
kolegou
mřížemi
Podpora
ostravské
zastupitele
Hodoní
pron
##dition
tuzemské
##nickém
##koru
Svobodní
Chtěla
expressed
##yen
##ux
řadách
Tře
pruhu
Chtějí
zajetí
měsícem
Ptá
vrah
Moscú
ochranou
rozhodují
dětského
pohádky
Využití
##iven
věděla
patřilo
Tren
Romové
útočníci
studentům
##ME
##lares
horských
dáno
mzd
##stevní
češtině
##uma
##wick
##litní
##hers
jedinců
trenéři
Nesmí
Nizozemsko
prázdn
devadesát
##inet
global
čaroděj
čekala
parkovací
FOTO
Alespoň
Obraz
Občané
tuny
año
##érní
zmizí
nepřá
##ávaly
Vez
oslovil
##zelo
reží
##ime
vytí
Nezapo
sadu
svi
cem
Ya
Schul
##oper
ostré
Sea
ice
##mayer
odz
výtr
zpívá
##eln
banku
Charlie
běženců
novat
sanciones
autorit
protis
polsk
kino
156
poslouch
senátoři
Rozdíl
pětkrát
podnikat
pošle
nezveřej
##hánět
133
##alizací
horské
Meziříčí
obvinili
poukáz
ask
##livy
udržel
##rive
krevní
Syř
parazit
##hna
##roub
léčba
doopravdy
děs
V4
prase
550
##ied
Gros
Křeček
okomentoval
samospráv
##ánková
tendr
Spence
potravinář
0cm
Obvykle
medailí
anketě
stupu
todo
deut
##minister
pohr
##mentální
zastává
obdržela
##hin
Svým
porazili
prvenství
nepřímo
evangeli
kloub
Naj
Jav
##cla
Mnohem
multiplayer
Luboš
umělec
netuší
jižních
trofej
Režisér
důchodců
Peru
sledk
nepotvrd
vymyslel
Matou
stability
##ried
##átků
way
únos
jadernou
bojových
pohroz
upraven
utaj
odrad
pozůstal
Luke
SUV
zahrnu
důchodce
Sag
Virgin
nejr
Městského
zastra
##hospod
##žovala
Pompe
Topolánka
Club
pražskou
zelená
třem
zpěv
##mluv
čekalo
eventu
Pitts
##stry
##dence
postupuje
regiony
poškodit
logo
dceř
##mes
hřbitově
rozmanit
##řům
neuvěřitelně
rodinám
variantou
##ktivně
Verdi
výcviku
národy
autobusové
hrab
Snow
předra
nastoupila
eskosloven
autorka
objektivní
památkové
vyvíjet
dospí
wit
nedoporu
exekuce
Sydney
Děčín
pneumatiky
zrušena
Neg
##loud
autory
názvy
##card
##ardo
zdat
##schaft
##lese
zabud
ústavního
prestiž
sat
nadšen
základně
sumu
Baník
nástupem
Hlubo
##řskou
##lah
Nizozemsku
drželi
dor
Frýd
Brazílii
Průměrná
pud
situation
Hlavá
zámin
zakládá
teplá
##vet
natr
vypadl
medvě
aktivisté
Et
mladšího
##hlásil
Čínu
kupní
MMF
##itů
pokusů
Dušan
duševní
##ilech
vrchu
sestavit
Anebo
##ledek
nákaz
zpest
nožem
see
halu
Kamil
rozhodly
metodou
happen
kolá
zaplatili
ocas
pondělní
sprost
hodnotou
překvapením
Honza
výskytu
Berlína
Express
tragédii
vydán
both
zprávou
řízením
nemusela
##light
Assange
foreign
##lung
##inko
Tob
inovace
Cham
Pus
##orient
kouzlo
hity
Reich
Koup
##řeného
Agrofertu
1800
Civ
otráv
přijme
desáté
nepotřebuje
neudělal
naráž
neznámý
sekci
ISS
zákulisí
##telé
##cción
##gas
##enera
Otro
noví
odhady
aqu
vrac
uskutečnila
lahve
Lho
prachu
Nick
##TM
solo
dostupná
##dorys
cat
ihr
ostatky
Hřib
dokončil
EUR
hip
dokola
Hradiště
ciziny
Vald
odle
##řizuje
dynastie
##pech
##ilov
rody
výměny
sagte
##jícími
pravoslav
úžasné
##anja
takovéto
teplot
komedii
zakončil
Letiště
lom
gymnázium
dopustit
Střely
incre
Vltavou
Sarkozy
květy
církvi
Light
Eur
barevné
Správy
biop
pouli
eln
Defin
ene
propadl
podepsala
bag
odborná
úterní
##kace
type
según
průmyslových
miluje
Luka
předsednictví
nuevo
##iho
nemil
následek
přestoupil
koaličních
diese
##manem
telefonem
zaplacení
uspěl
Výbě
podezřelé
kandidátce
Nabízí
nábřeží
neoby
lék
dramaturg
Nejstar
##echo
##jedno
Mapy
určeny
použili
Středozem
##entně
eska
nábytku
##kovaných
adren
Mnichově
Zbroj
vystoupen
druhému
křesel
Snažíme
##tory
hrací
suk
order
movny
##vob
Komplet
zaútočil
##álnější
pomohly
barvách
mobily
Severoatlan
pokoušel
uměleckých
##lichen
Staroměst
vydělat
netradiční
Richarda
hotovost
Aliance
##LA
Vladislav
billion
##statek
ctilet
##drý
zmíněný
klubem
TJ
dopisy
doned
popřel
výraznější
##šci
usly
pozůstat
##dla
nezak
nevys
československý
devades
epidemi
Orlicí
médii
slabé
Egypta
ryze
##ae
naraz
dab
firmách
##árně
vyšetřovací
etapě
Škod
padesátých
kříže
dale
Výjim
##nutá
občanská
spotřebitelů
Téma
příběhů
Valaš
umístit
úklid
##nym
##štěná
použity
están
pěstování
Nebudu
dopadl
##áta
impéri
hay
honor
časopise
Místek
ejnost
odsud
udělil
fakultu
skladba
Golf
MZ
Ukazuje
Joseph
Doba
valo
ničí
Morava
Kočí
lokalitách
bri
leny
akademi
muslimy
mej
Phil
kB
##ра
víry
vlastnost
obla
Poh
Nau
Ondřeje
##ádou
přítomných
management
objedn
bezb
Buch
##jížď
Jablonci
obrázky
prokazatel
##äch
dávali
pojistn
Kubí
##váb
uvedeny
##enská
výpočet
předali
fotoaparát
constru
komplikuje
Tahle
kvalitou
DPA
překvapilo
economic
Finan
kant
Jozef
nemusíte
oživení
Ukázalo
current
##video
ekaj
##ird
otevřeno
Mezinárodního
charitativní
mayor
anal
##OHS
bezprostřední
##stilo
##elová
Telecomu
##rátila
vysta
1931
Kryšto
lázně
táta
Švýcarska
Bloomberg
potřebných
zkouška
tabulka
irozen
čep
zástupcem
výb
##osa
##pouště
Pelhři
zachránil
136
Marcel
Trumpovi
maminky
víz
cosi
široký
##valech
Displej
sebevražed
Drážď
##odra
zabere
##číka
pozván
vyjádřili
tiny
nezm
osudy
Bav
Isa
přibylo
Tureckem
Murray
transak
Gri
jednička
vyšetřovatelů
##apad
projevil
pik
##sonová
kinemato
Cop
##áži
1923
uval
anglického
Kaddá
zhléd
statisíce
Milán
tempem
domovů
##kupu
##rátí
ombudsman
Sázavou
##tan
##rang
kapo
nepočítá
migranti
Mora
pochopil
Cir
especi
Libye
149
prodejní
investoři
chřip
##álku
zvané
Štra
závislost
oběd
Ach
##stopad
Pravidel
vystoupila
Zprav
Pozn
medicíny
gólmana
nést
zaží
Obyvatelé
Kruš
Němce
nevěděli
Všeobec
středy
Pohled
vinou
##most
Armé
ženami
Gazy
typicky
Komerční
##tionen
ustup
nejtěžší
odpůrci
sazbu
reflex
zamítl
Nar
antisem
zoolog
uko
vylí
##ways
rusa
kandidátem
Kala
260
##lácení
departe
Zastav
sloužila
volat
##štinu
nadcházející
Palestin
##slech
##UM
##alov
vítězné
Sly
Young
##stickým
##fied
astronomi
diskuzi
ÚOHS
lili
sexy
tradičním
##yz
vraždě
Dor
Mikulá
Pok
provedena
##ilová
level
bob
ivatele
mate
senátních
odhadu
umožnila
zpěváka
##000
přestane
1922
Odvo
##stero
##čelí
##iskem
Gö
STE
Naším
fungovala
HP
Popel
losti
blízký
civilistů
tm
##ński
stopu
přístupem
zahynul
závodní
hluk
přilák
radosti
Paradox
snadn
výstra
##ázeli
popisu
alkoholem
doktora
enu
##tahy
worksho
Gir
##cvi
proboj
zprost
Brook
Trá
maily
256
High
amnesti
##scher
##idia
Army
noted
vystřídal
možném
profesní
##kladech
Mexiku
Jordán
inti
##livých
atmosféry
převzali
business
bibli
##způsob
Heger
managementu
##chol
Holub
anglický
Japan
##Donald
krvá
SOB
##ان
zúčastnili
distribuci
podřízen
penze
představoval
nevyz
tvary
##ży
amnestie
truh
##ěné
420
announced
##ilot
nadřízen
matemat
##gov
##šující
kazy
Samotný
##OD
přejít
mrtvé
frontě
Museli
pevnosti
Pražském
Schillerová
Skoro
pásma
odjet
Clintonová
stezka
konflikty
rozpočtové
extralize
dopadnout
sešel
zavádě
příslušníky
sparťan
Příkladem
vymy
Dlouhý
##tivním
oder
zničení
Madon
AK
Ča
žijících
obratu
Potřebujeme
pavilonu
koš
obnoven
##idě
koleč
##lovy
skandál
Mini
##aktiv
##nicky
Městská
Alois
##árního
LED
sestřel
vypočítá
declara
##iser
češtiny
dialogu
Trutnov
##ibt
provozování
Budova
Hampl
mila
Kalifornii
art
zavedl
cyklisty
Jenomže
odmítnout
##jelo
##lko
odnesl
Zví
##tění
nápisem
potop
##děte
tvořili
Jab
##gó
marš
Dobrý
proy
##ticle
pokyny
útvaru
##grad
nálezu
věnovali
časově
bílého
poloze
konopí
Team
Franz
Norte
Sledovat
total
dosáhly
1917
Zik
odboj
formace
Tatra
zrušen
zpomali
zařadil
Polo
reprezenta
japonsk
čtvrtka
úni
odkazuje
droga
Dosavad
##lio
nezůst
empres
kněz
nekompro
Stejný
##ordin
Até
Komet
##stní
stava
Stein
jménu
September
##nesli
školou
financovat
klíčovou
psí
Podpor
třídu
establish
ID
spí
manipulace
138
Mladý
personas
nist
odpy
autho
Raiffe
překra
##ranáři
vnímám
bombardování
televizí
určuje
omylem
Rab
hráčky
Plu
usmívá
britskou
průvodce
brzo
kapelu
analytiků
opatrně
vozovky
Iranian
Kenn
výšku
pohybli
odmítnutí
Američany
dešť
polohy
sovětských
náročnější
neznal
kopie
comunic
senioři
oxid
nesch
přineslo
Vati
podlahy
Ox
##ovávají
vaření
udělají
filmového
zaměstnává
##kovicích
hrubého
herců
vítězstvím
televizního
##ops
Janukovy
motocykl
Orbán
EA
##áté
režimem
liby
Kosovo
metodu
adatel
Putinovi
Akci
##AK
##atura
##vézt
##HM
obohat
poslanecké
čištění
alp
procesů
zasahuje
čte
věnu
soudních
dětský
manažera
dolu
166
Města
Marcela
kritik
družstev
exportu
výhrů
pohyboval
ukazatel
naplnit
načas
vesni
legitimní
doub
##roš
vklad
Moravskoslezského
129
věro
pohřb
##OC
kulomet
Eti
stavebnictví
vrácení
změnami
Carl
Děj
posudku
kontroluje
zaměstnanosti
raketop
##čar
prožil
provi
zásady
Pur
crit
Podrobnosti
úmyslu
informacím
Boha
##cházejících
konzer
Stanj
zodpovědný
Dur
počítají
limitu
nepřijatel
desetit
účetní
HIV
hrůz
##tního
Americk
stránka
##ose
usmr
Zkrátka
Blá
nepřiměř
sborů
devatenácti
Hut
zapis
potřebnou
lahví
vytip
větve
prohléd
Raiffeisen
Vyšší
polských
stříbro
sousedství
registraci
Stavební
obrazov
zatě
zvolila
1927
Fond
Dodnes
sdílení
přezkou
Ján
##krat
zóna
pocí
založená
##jete
zahraničním
present
vzniklé
GI
Hanu
zásil
uzn
soupeřem
##cular
sjednocení
rozhran
##pre
ruském
domnívají
##ránek
příjemně
secret
Bobo
úspěchů
iku
Masaryk
##bezpeč
tvrdili
stranické
lkov
Anděl
Vladimira
##embre
pronájmu
Hory
muy
Útok
Temel
naivní
zavin
slovenská
úseky
párů
Vrchní
##táře
točí
potkat
Peuge
Cle
##toval
Stroj
výhodnější
Defense
jam
časů
119
rakovinu
uděláme
##LR
převyš
různo
nuest
menšiny
manipulaci
literaturu
objednat
kompati
choroby
French
Zdech
každopádně
Vav
through
připraví
Show
Šťastný
politickými
edk
tym
Německý
##üt
souroz
Spartu
##Star
přívě
##rime
ústavních
dohad
zlikvidovat
kritizují
##ovač
okupaci
##orou
##žu
##vival
neum
odpovídají
sekundu
odehraje
fakultní
zaujmout
způsobí
Momentálně
doku
##pravedl
dovednosti
otevřenou
odstoupit
Pocket
hospodářskou
dosavadn
mateřských
comple
Chybě
podrobné
chemických
Jud
koronavirus
Dvoj
Přemysl
##almente
zaměření
116
obdrží
chytrých
Zmi
cru
##tkou
Podez
výjimečné
ohl
toler
středoevrop
nebrání
dospělí
výstřel
Bernard
gam
gh
enstv
Václavem
marketingu
poptávky
Djo
výzdob
##liví
kontinu
Jinými
obhájil
ztratí
dřívějších
meteorologové
porovná
kavárny
nádrž
Kolo
šetří
##jdž
černých
Egyptě
##ceni
omezuje
důsledkem
##stislav
They
Gram
pohraniční
##leon
sov
##odstat
rektor
##žděním
vydírání
zhodnotil
pojed
reuni
##káře
1926
spadla
podezřelých
upřesnila
Nemáme
perfektní
zakazuje
měřítku
Strom
setkali
nabád
mrak
kladem
Sobotku
nádvoří
conclu
stezky
náznak
Zru
šly
dobrodru
Titul
nedaleké
maloobchod
předsedovi
##ologii
Petera
prohlídku
rejstříku
pevnou
asistence
base
Šed
##orov
filt
tehdej
veřejným
signat
Pry
evo
##vitu
Unidos
zdokon
žadatelů
Čtenáři
ink
Náměst
Más
uchy
znalec
rychlou
Benát
jistotou
Emp
hlasu
210
mužské
skladbu
erno
geograf
##ouštění
psan
##nská
##sts
##prom
převed
look
zábavy
vysloužil
Krajského
nejvýznamnějších
##dez
přistoupit
bolí
##ikan
##šin
naprosté
guerra
PK
##iones
143
poděkoval
##sexu
Pentagon
vakcí
nakolik
prolo
##arlament
##livého
jednotlivců
spontán
##zeli
Rusy
Smo
prototyp
místními
patřily
zdůraznila
teena
odmítal
zavzpo
odehrálo
znalostí
Chorvatsku
podílela
vulg
##molog
sousedů
Scot
jadern
inspektor
pozitivn
recese
stoprocentní
Slá
##ńst
projet
výkup
NB
##rage
##intu
životním
evropskými
projevit
##aned
ministrovi
moct
interest
Toman
rent
sledkem
západního
brance
144
nepodaří
držitel
Ray
sportovním
Týden
VW
ministerstev
recenzi
##fte
jakýkoliv
kompetence
Mol
kamarádi
Městě
shromážd
Konvič
vysvětlovat
daňový
ujet
padá
varují
Argu
##idades
zvuky
důvěryhod
zaujala
coali
##kovské
zamy
rokov
nemocné
##arrol
##padě
sanit
Aplikace
školá
Rusů
křesťanství
povstalci
##erů
fotbalisté
Gera
mimořádný
léčení
plody
Andy
široká
##ridu
##cely
chybou
levné
slavit
scén
zvednout
west
##mý
Lete
Saúdské
##cking
podnikatelům
##běžné
##dow
Kaddáfí
stateč
naučil
nevypad
učili
##akespe
místností
samice
Hodnocení
##istického
Israeli
Celkové
gynek
Juni
chápe
zločinů
Karviná
##ovar
půdorys
Silvest
##ikou
investora
##kau
##havý
##vostí
tiskový
Tuni
Slaví
podrobn
##skiego
spá
výuku
##sadili
Journal
INF
##tie
bouře
lehčí
##endech
game
##členné
alternativu
Samu
##VI
social
členkou
faktorem
##pendent
every
##telů
kancléřka
##éna
uznat
potaz
snu
výpravy
Drá
Linu
zemského
Chud
Kras
Stí
vejde
pras
prostitu
počítačové
Názory
##ismem
##izovat
Velikono
Nash
zraněno
skutečností
oborech
svaly
nuceni
##kovského
ruční
nutí
synovi
cizího
Rozhov
bavili
značení
##skobudějov
Kevin
základního
zimních
úřadem
Začal
meeting
postavený
populaci
##damu
126
##louz
bránil
povrchem
povodí
gesto
Marii
kultiv
věřil
Hoř
Dobr
##weg
vědu
nezodpověd
situación
##lišti
##platí
Dánsko
sof
##elou
##ism
leden
dálku
##enců
pochlu
jedinci
děkan
budoucích
##bergu
slog
chodila
##ligence
November
příbuzných
##cových
struktura
##nských
##válec
kuřá
krásy
vládnutí
svědek
brali
clo
##act
pořiz
nejraději
určený
plamen
nebezpečná
Ladislava
Will
náru
Messi
Zdrav
spustil
leb
filharmon
Software
Ari
##jun
Person
útul
zasy
piloti
dospěl
##skutku
aukce
zvid
nejdéle
únik
deter
##ovatelům
servery
tiskového
prototy
královna
Protest
senátní
blues
##unes
nezpochyb
##ovníky
ztratit
są
##betu
##ákové
##ovem
ods
mladou
dlouholetý
spekulovat
##jního
##gur
##liche
Autoři
rybník
ana
zkoumat
Tomášem
aktuálním
optimální
Mah
ublížení
Colle
faktorů
worden
kampaní
##cía
Letné
zavádí
Nejvý
zatop
tamních
demokratická
Asada
Ústavy
##atikou
Vad
banké
element
Bém
podce
Odtud
přídav
erp
zahájením
prodejen
utrpení
chovu
pláž
kotel
Chorvatsko
Jesen
Bö
Brig
##ship
neju
tajně
utrpěla
vylepšení
benzin
balení
Satur
uznává
Byť
##bosti
Zlatý
setrvání
Lessy
Institutu
střelce
proslavil
Jasně
dete
Samsungu
alovan
organizační
panely
krych
##ground
Sýkora
poselství
slušný
nepřines
nedokázala
##sily
##rnou
##ývání
předávání
Airlines
##ovskou
vydržet
Okam
exekutor
vědeckých
Zvlášť
vepř
Přímo
struktur
ojediněle
Kyjevě
Nada
všed
mailu
Připomněl
DJ
Jung
křesla
Poláci
zhrou
slavnosti
naprostou
samostatný
Night
Lys
Wild
Smrt
letectvo
som
Srbsko
últi
still
Press
přátele
Steven
Thun
podepsalo
typem
volejbal
politickém
##ecky
Krajské
zlatých
esu
střeše
Oscar
teroristé
Obamy
Digit
det
June
Budapešti
Nena
Irena
##meček
vzk
komik
černobí
předpis
Filipí
odstartoval
koncertní
##ius
zákonné
Řidiči
139
námě
rozvin
pyrami
##něnými
uleh
##ičně
Lidové
GPRS
##láz
db
bohatou
nedostanou
černého
Marks
faul
protokolu
Carlos
hotely
Ústeckého
chát
navrhli
mainstream
##orně
##émy
poloviční
##avá
ukrajinský
declar
2022
##tschaft
odb
##lega
rozbí
##obou
nejzá
Těm
dovozu
věři
předpoklady
ochránit
čtve
Otto
nesl
Jeff
druhých
##market
##hodin
přehrady
bavn
##fort
řeknou
synchroni
dio
Největším
nejdelší
##eben
Krieg
vykaz
obalu
nemohly
volili
leaders
ží
společná
lukra
editor
znamena
tudy
relativn
vyda
Irsku
legendá
šíř
##vače
cigarety
učil
zar
brýle
Uzav
vrhu
vydávání
atlet
##UP
##robí
##koali
příklady
restruktu
Strán
orientace
nabídek
Jahr
mléko
Pomo
Glo
stka
##lující
##řist
mladíka
Každé
teplé
##etní
spekula
##rácení
Vysvět
Jakou
##keit
good
organismus
míče
ira
dý
osmdes
lidský
napoví
sklá
echna
zkoušek
lej
zavedla
Putinem
pohotovosti
důstojník
připomínky
postele
vyvol
Kin
ass
##kojmí
vypadala
očiv
nejmoder
##demokra
pochvaluje
Rela
armas
##IE
zdej
nesmíme
Rangers
docházet
Nea
Konečně
opustí
Tálib
Hall
##ark
kuri
ukázky
růstem
husit
Baz
wan
dojel
napá
##iert
stavem
diver
lyžích
předpokladu
Záchranáři
vila
způsobilo
stanovení
Energe
letn
určených
kdokoliv
účinnosti
reformě
CV
předkládá
vydané
metal
předchůd
Toyota
kupříkladu
Porošenko
legraci
platilo
zpívat
transplan
spáchal
destabili
děkuji
textov
Autobus
Faltýnek
##oboleslav
##NS
dlouhodobého
Kovan
založit
Hosté
##RC
nabou
nevšim
zpěvačky
##ст
Australian
školení
##ženém
##BO
souborů
tlo
nahlas
discus
dosáhne
vzájemných
zábavu
zámo
Horáček
Zahradil
rozmno
lázní
##alistů
zrcad
legrace
doplní
porovn
Haná
##řál
Nicm
Wilson
Tvrd
obcemi
comerci
překážky
nejúspěšnější
certifik
geopoli
Mlý
stanoviště
bezprob
TE
azen
##slab
ojet
vem
příliv
Písek
Hard
##ather
přidá
regenera
inspirovat
Sněž
Klausovi
national
Lie
trestnou
absenci
ptali
tahu
zch
##racemi
sníd
Bílá
Madridu
policy
lhůty
##nig
Heř
sezónu
jedny
Nieder
Tw
Indu
arabské
minulostí
Ocen
##činou
chore
Lot
bránu
chrann
ztotož
##rix
čes
opouště
šedesáti
vedené
dějství
poctiv
násilím
sluní
Celkov
Ministerstvu
koln
ibl
Duka
demonstrací
todos
##ázet
Chi
úzké
##vici
počest
výroční
Vlasta
ae
##erte
Frida
reportáži
Orig
hloup
středním
náhoda
zezadu
publikoval
titulní
1912
##kánů
uložil
strávit
##cing
videoh
zajímají
Salv
weapons
##řizovat
laborat
střelbě
##tickém
hrady
samostatnou
tendence
necháme
480
atraktiv
balon
ministryni
Středočeském
hněd
pořádání
Teor
Fakt
unií
navždy
tuzemsk
##terak
mimořádnou
Pákistánu
gratu
pró
znamenal
Hoff
spojenců
schválen
Kind
Termín
hotové
brněnský
1910
zachytit
##rar
fenomén
trpělivost
##Le
hoře
reporté
vrcholem
Eurotel
restrukturali
WHO
hacker
distribuce
##timi
inspiraci
jednotlivce
těsné
obsahující
symboly
spolujezd
publicista
kony
Infor
sportovce
Kennedy
Znamená
##ml
##rovaný
cele
básník
nesná
##hledech
službou
Městský
příst
pacientům
##HC
meziro
##inů
##idos
splnil
width
##leného
prezidentu
dopln
Instagram
edpov
programové
prostorem
totální
Uži
##máhá
zdvojnásob
Opozice
Netanja
neces
bílých
Historie
ruští
cenov
zapůj
ostřel
tzn
slavil
odkazy
##anky
vybavena
##oritem
výhoda
Benešová
zakázat
Dovol
Mast
skut
hokejisté
touha
adapt
Vyjád
vyjas
antibio
brutální
tanec
kmene
ozbrojené
pho
##idenci
podstaty
hlídky
uhradit
alt
konečném
Respek
katastrálním
Squ
##util
evolu
Údajně
##ре
pracovnice
Pul
emer
nejzajímav
Interi
Beč
##trat
##tery
bohoslu
##ible
multikultu
kach
##tona
slibují
uvidíte
sklí
vyna
úspěšnou
Požad
styk
##hire
##taz
##kánské
prohlídce
1911
##onie
přežil
##šta
krajně
stěžují
přednášky
spoluhráči
##iniho
Devět
vyhlásila
doufat
blogu
rozšířila
three
znečištění
nesla
nešet
##muni
rodné
Mario
vyšly
148
kolemjdou
##pozit
##aje
##zením
Davidem
možným
##cita
důsledně
úmyslně
Kratochví
malin
elektr
Štěch
grandslam
prvnímu
October
##řadí
##lezl
CSc
adresy
kontroverz
Inspek
živoči
Kreml
##elen
přesněji
rybář
sudet
Děl
##cionální
účinnost
vyzvali
Nit
Úplně
členka
plochou
nejvýraz
vlastníků
budí
Economi
libyj
Jihomoravský
dostatečnou
DC
triumfu
kaš
předčasných
Čeká
generálním
kvalitních
kotou
Dohoda
Vide
Polák
Archite
čerstvé
případný
##vrat
kuchař
kritici
smlouvou
Nejhorší
Donbasu
vážný
potvrdí
##radil
počínání
požádali
terit
want
##mara
ant
case
Schne
bíl
stabiliz
luxusn
Papež
pracujeme
Pravděpodobně
spjat
poslanc
čtvrtina
internetového
zvýšily
soukromou
4000
připomínající
Pilot
konven
fungovalo
rozsáhlou
leteckou
Kance
pel
Říkal
adv
Hi
Alice
##sig
Tolik
zachr
Slovácko
Text
Hap
představili
geomet
Nejvy
Good
navrch
chráněné
sorti
Denis
Podě
hnut
Vypad
uprchl
Skon
Benz
uvnit
Zl
listiny
##ready
ventil
OL
Palackého
bankovnictví
##istick
profit
poctivě
##ahu
nuly
použitím
COV
nástrojem
muzikálu
agenta
Chybí
Ježíš
Křes
##ving
económi
Applu
##žce
úřadě
rozšíří
socialistické
termíny
147
špičky
fungoval
vášni
zvyšují
##jka
neub
nesmyslné
neutrální
ipravuje
FN
##ño
##skot
Kram
##píše
smluvní
příčky
kolonie
Javor
hlasováním
vyšetřují
hranicemi
šéfredaktor
Ciz
malými
estadounidense
##ezi
startuje
Liga
potravy
negoti
ovládl
evod
žup
##avých
výrazným
Nemo
zaplatila
jaz
zatá
unijní
projednat
##lida
meč
vzorků
##ctv
jezdci
kolegům
##sl
##čkář
##stika
Rumunsku
##pués
norem
katastrofa
Dolejš
rsk
cizině
Spíše
Lag
Sant
úroky
industri
Records
vystříd
Zásadní
Uc
##ložené
raně
sleč
školního
provozov
fyzických
hno
##ład
Albr
dálniční
zakázáno
transparentní
rukojmí
protirak
##žmo
Zlínském
##vic
lásce
Svá
připravoval
Základem
##ávalo
zmizela
překladatel
zvukov
havárie
Paula
##irá
##ládu
Koncert
pozad
Radovan
service
##ously
neděje
##itých
nervoz
Long
kamene
představovat
firemní
opozičních
jezer
udržuje
konem
bezpečnostního
dopadu
##žité
viní
očist
Bala
##knou
School
obratem
##pii
podlehla
zrušila
##chají
balíčku
porážky
##ischer
měšť
celky
pronájem
##povod
kreativní
FS
##vez
##ović
výprav
zapsal
italsk
křesťanské
harmono
##niej
prep
uskutečně
nezmi
řekněme
Finsku
olympiády
ante
dominant
uveřej
dít
hraniční
Soros
##wać
inscenaci
stávajícího
daních
pilíře
Šich
##meme
zacházení
Company
povinen
Sovětský
Jednu
zdražení
postar
elektromobil
##láh
zviditel
ukládá
absolvent
hlídat
Singa
samosprávy
proro
rozlohu
naplnění
##GE
Komunisté
posteli
##anému
krajina
kalhoty
půjčku
Jediný
spoléhat
Jag
Herce
záměrem
Čin
##čeným
farnost
##lest
trouf
vyznání
Radě
Uprch
##sición
identifik
aly
##enia
##hold
Cav
stanovené
##ating
výděl
Bílé
akredit
##jním
Způsob
neziskové
sny
##fü
upozornili
##ump
mundo
oliv
detailně
ligových
jog
##berku
nekvalit
rozeb
vyroben
Jednotlivé
úspěšných
šňů
dáma
##ijské
Haj
next
Medi
identitu
moud
##eckých
známy
campaign
Harris
zhoršení
náměstkem
Ská
píš
##ovost
##ohled
2500
##sula
blízkých
sar
překvapil
##ako
roka
týdeníku
tragické
##lána
##oupa
Dokon
##koje
lesk
usu
recon
rc
uklí
##omen
##oté
encu
##línek
Dodala
dobyt
##byd
sbírka
královny
nejčastější
muzikant
zábrad
Netanjahu
fantasy
převezli
poznamenává
Jediným
##öm
Přid
Shi
Žili
rušení
vedoucím
tisíciletí
##vemi
##puru
odpůrců
lehk
ducha
cual
židovského
chybějící
předstí
agresiv
Nymburk
hodl
statku
nula
blíž
bílou
slyšeli
webov
převezen
official
buddh
krajinu
Seb
dokáží
nechte
rybníka
Febru
prezidentský
215
alkoholi
kalend
postojem
rce
gymna
Středočeský
sousedy
povzbud
Dře
přeprac
základna
žánru
CP
##tivního
založený
##pliná
bato
##chové
postavené
doplňky
Mohlo
Židé
sběratel
issu
##cial
havárii
naft
##ello
převahu
będ
ničem
Vari
izolace
Doug
STEM
A0
fér
shoda
soudit
##ptý
fact
navrhoval
frekvence
##edia
##lins
sucho
posiluje
káz
vysp
sametové
ipravovan
příčce
orchestru
ochla
Ric
Novinář
vskutku
tuku
družstvo
iniciativu
aktuálních
near
značný
trofe
##randum
Sid
Wu
obdobím
##atá
lask
trávní
samém
Unii
emocí
dostatečný
neopak
koleji
Fung
RW
vyzbroj
naby
##mula
severn
houby
publiku
Barceloně
architekti
heslem
COVID
##zerbá
maleb
##hrají
pohyby
nakoupit
spousty
posuzovat
##xie
grafika
##peme
##rs
Kometa
legenda
Octavia
projíždě
profesi
Graf
standardu
russische
##áhli
##látor
zavražd
nesna
aktivistů
Lukáše
iznal
výsledcích
##zerbájdž
##něch
samého
restauracích
rozvodu
Repor
rozšiřování
##enen
Minnes
římské
organizuje
přestěhoval
obnově
smartphone
##čovala
dote
skandá
přerozděl
Říšské
##ingové
Vice
autobusem
visí
realitou
poradenství
prázdniny
Láska
##kací
motivovat
##ires
2030
fotku
železnici
evidováno
zatížení
Anders
Finance
pruhy
živě
##žte
##lies
upozornění
vzbou
Rafa
basketbali
invaze
##vák
zastavili
západně
složitá
cenách
tón
##ruch
Vyh
snaz
neuvaž
bloky
bava
suma
José
stínu
##žou
sváz
dólares
##aux
inteligentní
Smlouva
nádor
Volební
Dítě
zón
##sue
hraj
##cern
východně
militares
spektra
bezpochyby
vážení
čtvrtého
soustředí
January
nostal
Člán
pravu
zadržen
Oficiální
Cannes
odhalila
pasu
frag
samop
bulvá
nkov
Allen
Irsko
pandemie
Květ
Šká
##KY
pokusila
pásu
kulturn
domorod
posily
Airbus
nii
caso
##chin
Advok
Dalšími
Slovo
gymnáziu
protéká
##itisíc
Ryan
příbuzní
rozpočtů
neexistují
směřování
parkovacích
##čenko
výbuch
Way
##áteční
nečekal
##řípadě
Radní
##šák
komunikační
##vého
povodně
podmínkám
shodně
komoře
advokáta
##chybu
Patrick
Kanaď
vk
vedoucích
##hur
běžná
Drábek
bodech
odchovan
Ústřední
soutěžní
stravování
##átoru
vote
Ful
valor
zlepší
bakterie
vyprávěl
##nejte
nenav
Fanoušci
##arem
figuruje
pěkné
Malaj
##míst
schůzka
##cci
Stali
astrono
zajímalo
##ileg
připis
dopravci
من
novele
antu
missile
realitní
divák
desarrol
schvalování
korupcí
Gazprom
##MC
Moderní
obtě
fundam
Jugoslávie
##iza
##pru
Gun
docent
desítkách
můst
Zdeň
specifické
Škromach
vysti
Zvláště
sféře
symfon
##stím
##vab
Manchesteru
bytost
nevyhnu
pocházející
dlouhodobou
střechou
dopravou
pěšky
vydáno
ikr
hodil
##obili
čtvrť
mizí
pochlubit
ztrac
echod
keine
koncern
Televize
Kubice
Stě
##xo
roby
vzdálené
prozradit
porucha
vyžadují
Crist
monu
##ovová
Šumavě
nestra
##rovský
Premium
proslul
trendu
vrtuln
záznamů
##fel
##ňost
přepravu
čemž
terorismus
Ada
konso
pokouší
poločasu
Galerie
Last
exemp
Market
WC
##chel
novoro
##meteorolog
##lící
##pulár
automatick
chemie
Juvent
##ůrci
Koukal
problematické
rozhoř
příjezd
Neum
pasivní
Evropském
maďarské
Rans
##íská
##teral
komentáři
robc
bezú
přestřel
infrastrukturu
hostující
vlajku
kalifor
ulev
reprezentuje
potažmo
muzikál
vzorem
Bostonu
Emi
vyřeší
četl
clear
podnikateli
Afg
elektrick
neprů
váze
starším
ECB
dosahují
Eliška
##ingem
osma
svatbu
úkony
klá
##echu
Ski
prova
Poslanecká
dvoup
chystan
ovlivní
vybaveny
říkáme
soupeřů
účinek
regionálního
vyplatit
##ار
##oviště
bylin
lhůtu
prodejn
úcty
přepadení
sejít
probíhalo
nezúčast
solidarity
Požár
hospodářských
hodnotil
špatném
zstv
##síme
hrály
požadavkům
Chápu
dispeč
vládním
koule
Prozat
Ču
zavřít
vstoupili
##hami
##žovali
Pay
prosazování
Lichten
Vním
sprch
opě
nacistické
jakéhokoliv
nájezdech
spoluzak
1908
dovedl
falešné
Soupe
##esearch
stoupla
RIA
sili
mysliv
zdůraznit
##rony
čerstvě
jezdec
polojasno
zakázkách
neporu
havari
náboj
zkontrolovat
stojn
Gren
##šťál
muslimských
předsednictva
Taylor
genoci
atak
slovem
angličtiny
federální
thou
kamaráda
##čnými
uvolnit
boru
dovede
Hero
Antonio
přímého
odpadů
frekvenci
bilionu
milimetrů
Nich
čtvrtě
obejít
rozumu
bojích
koupelny
##roy
auditu
Ši
zabili
Srbska
##bourne
Rů
úhlu
zázrak
Emil
Kanton
pojistné
Marine
předko
znamenala
smůlu
##énem
Stre
ochr
skutečných
Domnívám
Doh
obžalovaných
Lípa
stáje
sochu
Hop
slovní
elektronickou
##pustné
misiles
jezu
issue
popřípadě
interní
pomůcky
Uz
##hamu
tyg
potřebujete
dluhopis
zásluhou
##žemi
##vačka
Viktora
mega
řešila
Síd
##szy
Jero
tmi
##istickou
roda
Věříme
inov
Moravu
československého
poskytu
az
povahy
##áží
pasado
bezdr
dohodl
ruší
Bursí
Banka
bloků
##covi
##entos
zoru
ušetří
holdingu
3G
následovala
ijdou
Rej
kariéra
##rovan
##ychlost
Agency
NG
mimozem
##coni
##edikt
tká
vnik
demonstrantů
zobrazit
komedi
##rostla
místu
zdůvodnil
Sat
Abdu
##lerem
dary
spojil
Keller
tisíců
zajišťují
Směr
klíčová
MPSV
projevilo
rna
left
směsi
ekvapiv
Varů
rizikem
##cri
kvant
prohlíže
##řeným
právníci
výnosy
##loru
loňských
Brazil
zobrazuje
mk
zasí
soukromá
gender
peči
pomáhali
rozhlasové
restituce
Sú
##aliza
##ingo
přesný
Miller
Osvě
kapele
dně
przez
##ute
Západě
lavičce
Včera
##řici
aktivních
Brian
found
šer
Sor
eurokomi
Kučer
synago
exprezident
podklad
Rein
land
sezonou
Moj
##polog
Kluci
Golden
Všem
nákladních
dominantní
křídel
choval
legálně
##maj
podpisy
Nom
ÚO
životních
namal
meziroční
Halík
based
pomník
hudebník
Kroměříž
kádr
prvními
solární
##čátek
Laz
moderátorka
##africké
lhůta
##ňský
already
rozjel
zpravodajských
motivem
přilé
tim
neznámé
výzvou
chodníku
##idní
jednotné
vánočních
Job
vzkazuje
ski
zápla
Šárka
řeku
Kelly
Prostor
prémi
##pělo
zvolí
Maty
varov
zažila
##trest
mont
nikterak
odpovídal
čtvrtí
doplnění
##leze
policejním
hudebním
Jamese
Ou
chápat
Uvnitř
Hö
norma
Ráno
company
tanků
divoké
##stek
založila
Katalán
##rozem
totálně
Luděk
mojí
miniat
Incident
Filozof
vyhledávání
rysy
##sidera
Obhá
vládnou
položil
rozměrů
##orty
Spojenými
Materi
situac
standardy
inku
tlačit
barvě
osmifinále
popo
pracujících
zlé
zkoumá
##film
Perout
nedává
obviněných
Litomy
došla
krásnou
your
refu
Institut
##pustilo
poradil
Chalupa
##izu
stanu
##rálních
nepřizpůsob
klesat
rozdělena
Istanbul
Klid
Villa
dneška
Charlot
kapitu
Fernan
##ŽP
ideálně
Lewis
zkuste
forem
škodí
Fridrich
frekven
investičních
akutní
zásadních
Stojí
pasti
následujícího
spoluma
živočichů
##chan
##leo
vnitřního
##hera
neot
mosty
USK
prezentuje
odstar
GE
potu
přírodu
nebere
stovka
Jindřicha
spa
berlín
Brun
Rumunsko
Krista
okouz
Riu
##vědčuje
fer
výky
skupinami
munici
sympatiz
lot
populár
Zeitung
Mold
kauzou
propaganda
##raj
Libereckého
zaují
##ránil
##růbe
kvót
kardinál
zdvi
rozumné
domluvili
pít
##kař
cuando
##osu
zvedl
##plá
##ňského
vedena
##house
perfektně
face
msk
##lovaných
several
upo
##znamen
ženatý
ZA
myl
planetě
December
kard
vykou
stěžuje
muslimské
poradí
atentátu
departementu
využila
revoluční
##bn
nazvané
sond
Vest
Phoeni
partici
##ци
hydrometeorolog
Kdysi
legislativa
kamenné
autonomi
poty
proběhly
##bridge
Krup
m2
##lníky
spolkové
pocitu
Nám
Voli
obcím
symbolicky
##nitu
Bulharsko
Müller
pohonem
Krás
##don
balkon
Was
skupinách
dohledu
Plíšková
Istanbulu
##orychlost
Lok
##dák
July
##motnost
dílčí
integra
own
Parkan
filmovou
pravici
Ukrajinou
hotelů
Ulice
kandidátku
Štern
zraněného
Gy
##odivu
pracovit
##ohen
umoc
zášt
##alisty
zmíněného
##ativn
jednoduchou
majitelka
pronají
diplom
##letému
podpisem
rekreační
Přece
Medved
Gym
Celkový
LA
##rubí
podíváme
výkonnost
Fan
všudy
hraně
Vlastní
mobilního
poloostrova
celosvětově
##sij
jaderného
notebooku
umírně
Buff
nezapomenu
##xí
Ukrajinci
bakal
zvyklý
Lady
jimkou
kluka
##ić
Komárek
technologické
šťastná
přilo
navázal
obyčejné
##irmó
graná
veškerý
hlubší
kytaru
##illy
##obí
volant
volnou
favorita
odkl
přilehl
##vedly
Klausem
vymyslet
trvají
privileg
##page
Otakar
##žným
silného
vyprov
obětem
zrani
Operační
odolnost
Rusnok
zdali
senzor
získané
reprezentantů
databáze
##ged
##PO
historií
vlivy
René
another
After
trpas
sklonku
##itelného
Just
řádově
synte
##kandid
načež
zov
rusko
sexuálního
splácet
koni
historická
sofisti
neče
##ancial
Sibi
Ahm
Kit
##ruguay
Burian
##řovat
Nacional
exteri
dostanu
Studio
##ping
CSU
technická
muzikan
##livým
##idge
nezaj
Brož
rozšiřuje
Sanders
antisemit
##hö
plynů
youtube
##čech
aktivista
##cé
##nier
##znamenal
tipy
Anthony
moleku
##Bo
rozh
band
rychlostní
Dark
Žďár
##cera
rozsud
italských
spekuluje
speciálním
Romy
czy
##pond
jakýkoli
festi
kolekci
gum
sumy
čistého
nestačil
vydělal
identifikovat
kolony
Council
nerozumí
sati
vchodu
podniká
Říma
Šichta
onemocn
identity
Svěd
ministro
správným
##zab
Švýc
pobřežní
FM
nečin
součin
pervit
Korean
odhalování
Master
znali
držela
Duba
Tol
solidní
typický
Záz
udělalo
zapomí
domnívám
městečka
brad
##rány
zvaný
5G
##woodu
nejdražší
přistá
vchod
moderním
zařazen
End
thr
neposkyt
##nán
##akrát
taktiku
připojen
závislé
Hongkongu
MV
vyobraz
veterá
Dort
Rut
##idence
dělníci
Šmí
šu
##atiku
šestý
##taly
nahradila
utéct
hek
##íny
kopci
##ovedu
klíče
obavu
Nutno
ABC
hin
výrobou
Secretary
prezidentského
neumě
Tesco
tekut
zakázal
stížností
KP
bělo
přetí
Vrba
zahal
prověřit
eti
hist
velkor
lidstvo
vysílat
shrnuje
##cítky
kamionu
Varns
##árů
EN
##nea
##koló
vyřazení
##ovníků
##ticos
neznámého
##řují
Zlaté
A3
podílejí
SF
vln
farmace
elektroniky
omá
officials
edb
sbírek
Abych
hrozil
Ústecký
kolegu
Adama
ONU
pin
win
pohor
pracovně
Holly
momentu
Bond
Erik
rozčil
dna
prosk
##inian
##ičním
##řemýš
posílí
Zájemci
znepokoj
##léd
polohách
důl
jemce
babička
olympijského
##bera
zasaz
případnou
Maso
##ovských
zálohy
loter
##pers
zasti
Sebastian
modrá
##gt
##pána
konkurzu
elecciones
dodatečně
výdě
motý
Britský
Litoměřice
Under
obchvatu
Roger
Bakala
##orio
kdežto
Mong
wol
ztě
podzemí
průkop
rusos
univerzitu
neodpovídá
##zant
metro
Syrien
##rnách
ležet
střídání
Bohemia
##plomat
Class
patřící
dodáv
prosadila
uchová
around
article
reálném
hodnosti
##hlík
zónu
přivést
procesory
koncertech
850
##ryho
pravého
Chan
levicové
poměrů
prošli
kovů
prodloužit
Dalibor
exministr
Moravské
konzum
Dvouhra
Klim
##55
nemocn
Číňané
##vené
prk
pohodln
integrovan
horizont
československých
tvůrčí
mach
Britain
Telegraph
transfer
pow
starají
zbývajících
talks
dobrovolníků
duši
Snímek
lidstva
neproz
přebí
jezdili
dokážeme
rut
##čítat
Merkelovou
vyžádal
repe
ukra
inje
zapal
Holand
Mex
zemědělských
prime
EZ
##ring
propagace
Počítá
tepli
Dead
Four
Úřed
spoluaut
Čechům
hovory
ulicemi
čísle
katastrofy
Unik
sousedním
Snažím
Kosova
Hert
##ourist
vlastníka
samotným
oslavu
jeskyně
nadprů
##uss
neboj
rallye
Wy
Yu
peklo
Mý
kadeř
sha
fab
vstupenek
vyčist
květiny
pravdi
vystaven
skóroval
zákazníka
příroda
dort
dorazilo
konkurent
probíhaly
Spoluprac
příznivce
lii
komunist
komplikovan
Skvě
Experti
Sü
abstra
penzijní
run
celove
velikono
umožně
Nemůže
astrona
##hoří
ničení
nemocný
předvedli
##este
schází
Princi
vyloučeno
vykres
nahlí
##žijeme
úplatek
##quía
Pila
přejí
sezn
slavnostním
venkova
přestupek
zesnul
Slo
frekvent
Mluví
oznámilo
zvláštního
Minu
cenn
nezávisle
Círk
##bara
projevila
normalizace
##emokra
uzavír
tvrdou
vzácné
Hodnocen
rozdělí
signi
okolnost
##menou
##kováním
mlčí
bankovn
komunita
obývá
##čtení
nilo
##laví
koše
upravuje
##has
ach
Viděl
##vým
točit
Jand
skali
##aldo
Apol
nájezd
metrech
umístila
kopec
nápor
postižení
ocel
hladinou
učitelka
omezování
Theresa
##hand
##ativa
kritikou
zvládla
Válka
Berlin
Battle
Dvořáka
Místopředseda
jedu
sau
Teplicích
bílkov
nepřítom
##có
Prohlédněte
profesionálních
diplomatické
Petice
##pin
pašer
popud
čtvrtá
sklu
okny
žer
skladatele
odpověděla
edsedy
pořídil
##eller
kotle
účelu
nevol
##onov
Zvláštní
##táme
nahl
##ögli
speciálního
##advacát
Az
##hrob
východního
Skali
hově
##rities
stanovil
particular
Stanjura
nedalo
zavede
domovní
protagon
Hlídací
tut
Lize
krem
dlužní
##enčí
Janoušek
medvěd
líbilo
Queen
Zimola
movn
##ronů
Veškeré
##ckey
ztro
mrk
psychické
dvojnásobek
sáhnout
dokládá
##rania
bankou
konstrukcí
Nejstarší
Holding
platformu
Financial
prozrazuje
vtr
následků
ulti
##řiny
líder
dodávat
přiblížila
donde
donedávna
Penti
mic
nacházející
Janeček
Trag
Hitlera
kend
##vních
organizátorů
Libanonu
hodnost
vrstv
vykoup
vín
nenapl
pohromadě
Research
doleva
questi
dopadly
nastínil
potápě
památníku
sedmdes
napadne
stáhl
riziku
fili
umy
pravidly
influ
vyčlen
##čáři
hlásit
odej
rozdílem
sliboval
seguridad
echy
##dánu
##šice
##láp
nočních
soběsta
dobrovolných
IBM
Din
MI
Road
gor
##VA
Miloši
klimatické
uspořádat
důsledek
Chra
1913
Marvan
směřovat
Nesou
##ен
francouzskou
sněmovních
obnovitelných
##mond
##mela
zažili
rozmys
zachov
kamiony
podvo
Jiné
##mia
nechají
trojúhel
billbo
##nicemi
Russ
##cau
Předpokládám
Gord
Smut
vyloučen
negoci
Vydavatel
nabízel
tud
##ýkají
agenturou
syndrom
imun
##polu
dramatické
Jarolím
vyrazí
pravil
myslela
eff
viola
Tisk
##anie
slovan
odpolední
vytápění
Lop
moza
pahor
Integ
poradci
##acia
fla
stačil
operačním
herečky
Žene
Šang
kdokoli
rozdílné
Vaší
zamezit
##členná
neuvědo
##kc
Smol
Uk
Stro
vracejí
skutečná
reagují
Nováková
zleva
Champion
Ay
přísnější
přimě
zlobí
##líkem
Nebyla
nabídli
Rudé
Regierung
příko
##elové
##peu
protokol
##mation
ohledech
##při
telefonicky
útěk
ÚV
potrubí
pozicích
krajní
sledovala
##gem
obžalovaného
##über
##etr
Church
přivá
přesvědčena
##ratic
přínosem
Matthe
převa
prošlo
znakem
liberali
slz
zákroku
konspira
ovna
asopis
Práv
drůbe
##quier
odposlechy
Vaň
starostů
##út
vlastností
McL
přispěla
nezaměstnaných
chytil
střelcem
Nechá
Mohli
##nících
mostů
soupravy
pátém
nadměr
uzavře
výpadek
1907
sul
##ref
přepis
kdej
citlivé
věříme
chválí
##zenou
Bulharsku
přeháňky
Německé
kontaktovat
Dot
clava
propadla
Ral
výchoz
eufor
##cující
tamn
Vadí
negativn
Kocour
Pán
Velice
##městna
legion
anglick
kritizovat
##wią
Arabia
medail
##mínám
občanský
buň
výchovu
adekvátní
Afghan
##anger
Nicolas
kann
jevišti
Netoli
maturit
estup
sudí
nemusíme
Absolv
zmani
dávku
táborech
detailů
oš
docí
después
snů
Sunday
skaut
Uč
Domaž
získávají
hrubé
investuje
špičce
vnitrozem
Letní
Konzervat
argumentuje
Hat
nevyjád
mrtvého
uložení
Pakistan
inflaci
##čkám
##tac
svobodně
osídlení
protisměru
pojí
##běhla
pák
##ánie
riskovat
##odi
kontrolního
titulky
dém
nespokojenost
nenas
zdejších
oblig
Tenhle
##ega
postaral
Šabat
Rest
sdílet
##gers
Opavě
domé
Nokie
Šafář
Stephen
##hop
počínaje
Zpr
##školá
mostem
##eza
##žír
kladen
páteř
Michel
Kryštof
Potvr
Světová
vizuální
hitem
##xx
##tee
Nezávis
views
posk
profesí
bydlel
projednávat
zanedba
Lisabon
Rostislav
přesunout
##teil
##štěni
podvody
segmentu
samostatných
mírové
krk
spekul
Starší
Citro
významného
potěší
žralo
##لى
ohňost
dovolí
tkov
information
##wart
Fiat
ekro
##řeně
českobudějov
krajin
Problem
zkola
ite
ministru
ijet
rockové
Kell
##gary
výrobek
východních
Monday
Rio
##ratem
schodek
nejoblíbenější
smířit
šup
dešti
##hradí
určitým
přehlídky
Špat
noze
obchodníci
Výhodou
územím
lith
neshod
sestrou
Moravskoslezský
##arev
##prode
##stale
dostávali
spadají
poškodil
nakou
porque
hokejový
hatt
##tily
věty
##krou
dočasné
rekordy
Spartou
rakouského
eurozóně
čp
mafie
Speciální
1600
Thom
takzvaně
demokratickou
##ející
dej
předpoklad
dozvíte
Wen
##arily
##šín
účastník
Vliv
local
tradic
##fektiv
běžném
odhlas
##ránců
přestavě
appe
antimon
jedničky
jablon
nikým
otevřeli
zjištěno
nekal
velitelem
láka
dodavatelů
##yst
##peut
zlepšovat
Vyšetřování
pomalejší
školních
záchranky
obrátila
##znám
##ciden
těl
##gramy
léčit
momenty
nalezli
vrchního
Plze
vlastnil
matu
Prakticky
uns
přesunu
Ej
mrazu
Konstru
Shakespe
chaty
označili
Černého
posilování
celoživotní
neúčast
Masarykově
Transport
pouzd
anarch
pochopili
bytové
životopis
účinné
Irák
Institute
pobou
##incem
očekáváme
naděj
záchod
nádherné
soby
analytici
hypotéky
Friday
kalendáře
srdcem
teple
důchodového
Mostu
smaz
##zenia
zraněný
##RI
potřebná
##outil
vyhláška
postoupit
pokryte
zámoří
hrobu
Blat
Česk
zápisu
uvědomil
centrech
nasadit
Škola
látka
##babě
##élka
vyřešení
syrských
Katar
Působil
Aud
uhli
vydávají
nosu
Začátkem
ham
nevyt
sucha
Čecha
Morris
Krumlov
tnu
Josefem
Porad
většin
pověsti
Eden
věží
dodateč
plé
hodu
opakované
těží
neohro
zamyslet
Bri
Čist
##core
##lehlé
věřící
sestavu
sousedí
Dmitrij
Now
Schwarz
klon
mad
max
mužstvu
kame
cenami
Espa
##liktů
etr
sídle
myšlenkou
Klubu
College
ocenit
registrace
věta
Vojtěcha
stipen
okresního
##gorit
jakož
znova
##ářům
reálný
plavidla
Půjde
velkorys
##věta
Bis
##akov
prsa
iPhonu
vrtulníky
##gru
dnost
odklon
schopn
bateri
aktualiz
Zlínského
Podporu
##DEM
##yho
condu
zastávka
Alfred
hydra
letectví
Záme
Artik
##gener
Noční
More
šam
##jal
##antem
##egu
holka
opevnění
budoucím
intu
Tag
traum
sobotním
pohlavní
žada
svátku
ervnu
trůnu
##dosti
omezena
second
kyseliny
dinosa
##chs
states
Amster
vyžádala
##ggest
##ráním
vyhlí
dopla
Marsu
známí
popularitu
závad
tibet
##dává
rusky
rychlého
Jenni
romské
předplat
vyslal
uvedly
ochutná
Pierre
světel
Odpověď
demokratického
břeh
Rozsudek
vysokorychlost
idea
##korun
omluvit
capital
Nort
půlce
nalezení
nátlak
invol
Tis
##leň
##hač
Toma
společenského
klien
pedago
knížete
spojeny
vstupné
poledni
hrající
zásobování
shodou
přispěje
##jíždění
naznačují
Zprávy
promin
##see
vynález
vymo
kvalifik
koncip
deště
330
##ske
##ieren
##jad
##čes
zabývající
záchranář
zahrála
repr
Britská
stěže
izp
řešíme
##váří
##natý
Jerem
